{
 "base_tokens": [
  "z",
  "¾",
  "्",
  "=",
  "ç",
  "9",
  "ḷ",
  "ε",
  "0",
  "T",
  "L",
  "Z",
  "r",
  "ȝ",
  "​",
  "J",
  "í",
  "K",
  "/",
  "ἔ",
  "σ",
  "−",
  "ο",
  "ُ",
  "ē",
  "υ",
  "&",
  "량",
  "ς",
  "P",
  "ṓ",
  "ǽ",
  "π",
  "ֻ",
  "⁄",
  "밥",
  "×",
  "ي",
  "u",
  "…",
  "ò",
  "÷",
  "b",
  "ð",
  "ə",
  "ί",
  "</w>",
  "S",
  "y",
  "ख",
  "–",
  "”",
  "ó",
  "?",
  "·",
  "β",
  "ù",
  "س",
  "}",
  "ĕ",
  "B",
  "Ç",
  "ῶ",
  "q",
  "C",
  "ă",
  "*",
  "ớ",
  "ὰ",
  "4",
  "λ",
  "स",
  "τ",
  "ω",
  "à",
  "v",
  "_",
  "Í",
  "ּ",
  "^",
  "h",
  "ü",
  "χ",
  "V",
  "נ",
  "Δ",
  "ת",
  "ρ",
  "ن",
  "ा",
  "X",
  "H",
  "(",
  "θ",
  "A",
  "E",
  "½",
  "ë",
  "ֶ",
  "U",
  "ك",
  "श",
  "D",
  "k",
  "7",
  "±",
  "W",
  "ὸ",
  "계",
  "ق",
  "]",
  "ŏ",
  "보",
  "ण",
  ">",
  "κ",
  "!",
  "l",
  "¶",
  "f",
  "¼",
  "è",
  "ý",
  "μ",
  ";",
  "2",
  "ι",
  "á",
  "{",
  "8",
  "Ü",
  "\"",
  "Þ",
  "→",
  "’",
  "I",
  "5",
  "N",
  "'",
  "$",
  "~",
  "+",
  "क",
  "ô",
  "§",
  "ê",
  "ī",
  "우",
  "ṭ",
  "-",
  "ū",
  "δ",
  "@",
  "ά",
  "Ȝ",
  "£",
  "ư",
  "[",
  "ύ",
  "€",
  "F",
  ":",
  "Y",
  "ֹ",
  "d",
  "é",
  "ʻ",
  "ś",
  "e",
  "#",
  "s",
  "c",
  "G",
  "‑",
  "₹",
  "%",
  "i",
  "ā",
  "리",
  "ş",
  "°",
  ".",
  "ड",
  "ṯ",
  "M",
  "و",
  "ν",
  "â",
  "x",
  "þ",
  "ō",
  "ˉ",
  "3",
  "1",
  "ξ",
  "ö",
  "φ",
  ")",
  "o",
  "َ",
  "“",
  "ı",
  "|",
  "p",
  "R",
  "—",
  "j",
  ",",
  "כ",
  "6",
  "γ",
  "æ",
  "Q",
  "w",
  "ط",
  "a",
  "ّ",
  "Æ",
  "m",
  "û",
  "g",
  "n",
  "t",
  "ä",
  "र",
  "œ",
  "ر",
  "ñ",
  "η",
  "î",
  "O",
  "č",
  "α"
 ],
 "merges": [
  [
   "e",
   "</w>",
   "e</w>"
  ],
  [
   "s",
   "</w>",
   "s</w>"
  ],
  [
   "t",
   "h",
   "th"
  ],
  [
   ",",
   "</w>",
   ",</w>"
  ],
  [
   "d",
   "</w>",
   "d</w>"
  ],
  [
   "t",
   "</w>",
   "t</w>"
  ],
  [
   "n",
   "</w>",
   "n</w>"
  ],
  [
   "e",
   "r",
   "er"
  ],
  [
   ".",
   "</w>",
   ".</w>"
  ],
  [
   "a",
   "n",
   "an"
  ],
  [
   "i",
   "n",
   "in"
  ],
  [
   "th",
   "e</w>",
   "the</w>"
  ],
  [
   "y",
   "</w>",
   "y</w>"
  ],
  [
   "o",
   "r",
   "or"
  ],
  [
   "a",
   "r",
   "ar"
  ],
  [
   "f",
   "</w>",
   "f</w>"
  ],
  [
   "o",
   "</w>",
   "o</w>"
  ],
  [
   "an",
   "d</w>",
   "and</w>"
  ],
  [
   "o",
   "f</w>",
   "of</w>"
  ],
  [
   "o",
   "u",
   "ou"
  ],
  [
   "a",
   "l",
   "al"
  ],
  [
   "t",
   "i",
   "ti"
  ],
  [
   "e",
   "d</w>",
   "ed</w>"
  ],
  [
   "e",
   "n",
   "en"
  ],
  [
   "e",
   "s</w>",
   "es</w>"
  ],
  [
   "r",
   "o",
   "ro"
  ],
  [
   "g",
   "</w>",
   "g</w>"
  ],
  [
   "er",
   "</w>",
   "er</w>"
  ],
  [
   "r",
   "e",
   "re"
  ],
  [
   "t",
   "o</w>",
   "to</w>"
  ],
  [
   "in",
   "g</w>",
   "ing</w>"
  ],
  [
   "i",
   "n</w>",
   "in</w>"
  ],
  [
   "o",
   "n</w>",
   "on</w>"
  ],
  [
   "o",
   "n",
   "on"
  ],
  [
   "l",
   "</w>",
   "l</w>"
  ],
  [
   "a",
   "</w>",
   "a</w>"
  ],
  [
   "s",
   "t",
   "st"
  ],
  [
   "or",
   "</w>",
   "or</w>"
  ],
  [
   "c",
   "h",
   "ch"
  ],
  [
   "i",
   "s</w>",
   "is</w>"
  ],
  [
   "a",
   "t",
   "at"
  ],
  [
   "a",
   "t</w>",
   "at</w>"
  ],
  [
   "a",
   "s</w>",
   "as</w>"
  ],
  [
   "r",
   "i",
   "ri"
  ],
  [
   "th",
   "</w>",
   "th</w>"
  ],
  [
   "-",
   "</w>",
   "-</w>"
  ],
  [
   "e",
   "s",
   "es"
  ],
  [
   "u",
   "r",
   "ur"
  ],
  [
   "m",
   "</w>",
   "m</w>"
  ],
  [
   "e",
   "n</w>",
   "en</w>"
  ],
  [
   "e",
   "l",
   "el"
  ],
  [
   "o",
   "w",
   "ow"
  ],
  [
   "w",
   "h",
   "wh"
  ],
  [
   "l",
   "i",
   "li"
  ],
  [
   "a",
   "s",
   "as"
  ],
  [
   "o",
   "m",
   "om"
  ],
  [
   "ch",
   "</w>",
   "ch</w>"
  ],
  [
   "w",
   "i",
   "wi"
  ],
  [
   "s",
   "h",
   "sh"
  ],
  [
   "p",
   "l",
   "pl"
  ],
  [
   "r",
   "a",
   "ra"
  ],
  [
   "ti",
   "on</w>",
   "tion</w>"
  ],
  [
   "t",
   "s</w>",
   "ts</w>"
  ],
  [
   "=",
   "</w>",
   "=</w>"
  ],
  [
   "l",
   "y</w>",
   "ly</w>"
  ],
  [
   "T",
   "h",
   "Th"
  ],
  [
   "d",
   "i",
   "di"
  ],
  [
   "u",
   "s",
   "us"
  ],
  [
   "f",
   "or</w>",
   "for</w>"
  ],
  [
   "b",
   "e",
   "be"
  ],
  [
   "_",
   "</w>",
   "_</w>"
  ],
  [
   "o",
   "l",
   "ol"
  ],
  [
   "a",
   "n</w>",
   "an</w>"
  ],
  [
   "i",
   "r",
   "ir"
  ],
  [
   "o",
   "s",
   "os"
  ],
  [
   "al",
   "</w>",
   "al</w>"
  ],
  [
   "s",
   "e",
   "se"
  ],
  [
   "a",
   "c",
   "ac"
  ],
  [
   "i",
   "t</w>",
   "it</w>"
  ],
  [
   "l",
   "e</w>",
   "le</w>"
  ],
  [
   "th",
   "at</w>",
   "that</w>"
  ],
  [
   "g",
   "h",
   "gh"
  ],
  [
   "th",
   "e",
   "the"
  ],
  [
   "u",
   "l",
   "ul"
  ],
  [
   "[",
   "</w>",
   "[</w>"
  ],
  [
   "]",
   "</w>",
   "]</w>"
  ],
  [
   "0",
   "</w>",
   "0</w>"
  ],
  [
   "i",
   "c",
   "ic"
  ],
  [
   "a",
   "b",
   "ab"
  ],
  [
   "p",
   "ro",
   "pro"
  ],
  [
   "m",
   "a",
   "ma"
  ],
  [
   "p",
   "</w>",
   "p</w>"
  ],
  [
   "l",
   "e",
   "le"
  ],
  [
   "s",
   "u",
   "su"
  ],
  [
   "b",
   "e</w>",
   "be</w>"
  ],
  [
   "h",
   "a",
   "ha"
  ],
  [
   "ar",
   "e</w>",
   "are</w>"
  ],
  [
   "a",
   "g",
   "ag"
  ],
  [
   "al",
   "l</w>",
   "all</w>"
  ],
  [
   "o",
   "o",
   "oo"
  ],
  [
   "er",
   "e</w>",
   "ere</w>"
  ],
  [
   "\"",
   "</w>",
   "\"</w>"
  ],
  [
   "i",
   "t",
   "it"
  ],
  [
   "e",
   "c",
   "ec"
  ],
  [
   "c",
   "e</w>",
   "ce</w>"
  ],
  [
   "i",
   "l",
   "il"
  ],
  [
   "d",
   "s</w>",
   "ds</w>"
  ],
  [
   "en",
   "t</w>",
   "ent</w>"
  ],
  [
   "ou",
   "r",
   "our"
  ],
  [
   "b",
   "y</w>",
   "by</w>"
  ],
  [
   ":",
   "</w>",
   ":</w>"
  ],
  [
   "d",
   "e</w>",
   "de</w>"
  ],
  [
   "k",
   "e</w>",
   "ke</w>"
  ],
  [
   "a",
   "m",
   "am"
  ],
  [
   "s",
   "i",
   "si"
  ],
  [
   "er",
   "s</w>",
   "ers</w>"
  ],
  [
   "Th",
   "e</w>",
   "The</w>"
  ],
  [
   "v",
   "e</w>",
   "ve</w>"
  ],
  [
   "wi",
   "th</w>",
   "with</w>"
  ],
  [
   "'",
   "</w>",
   "'</w>"
  ],
  [
   "ou",
   "n",
   "oun"
  ],
  [
   "c",
   "on",
   "con"
  ],
  [
   "f",
   "ro",
   "fro"
  ],
  [
   "k",
   "</w>",
   "k</w>"
  ],
  [
   "o",
   "t",
   "ot"
  ],
  [
   "fro",
   "m</w>",
   "from</w>"
  ],
  [
   "1",
   "</w>",
   "1</w>"
  ],
  [
   "2",
   "</w>",
   "2</w>"
  ],
  [
   "th",
   "er</w>",
   "ther</w>"
  ],
  [
   "w",
   "as</w>",
   "was</w>"
  ],
  [
   "c",
   "om",
   "com"
  ],
  [
   "f",
   "or",
   "for"
  ],
  [
   "3",
   "</w>",
   "3</w>"
  ],
  [
   "wh",
   "i",
   "whi"
  ],
  [
   "e",
   "m",
   "em"
  ],
  [
   "d",
   "u",
   "du"
  ],
  [
   "t",
   "ur",
   "tur"
  ],
  [
   "s",
   "e</w>",
   "se</w>"
  ],
  [
   "a",
   "tion</w>",
   "ation</w>"
  ],
  [
   "5",
   "</w>",
   "5</w>"
  ],
  [
   "n",
   "o",
   "no"
  ],
  [
   "ow",
   "</w>",
   "ow</w>"
  ],
  [
   "b",
   "u",
   "bu"
  ],
  [
   "7",
   "</w>",
   "7</w>"
  ],
  [
   "u",
   "n",
   "un"
  ],
  [
   ";",
   "</w>",
   ";</w>"
  ],
  [
   "s",
   "o",
   "so"
  ],
  [
   "4",
   "</w>",
   "4</w>"
  ],
  [
   "(",
   "</w>",
   "(</w>"
  ],
  [
   ")",
   "</w>",
   ")</w>"
  ],
  [
   "e",
   "ar",
   "ear"
  ],
  [
   "e",
   "x",
   "ex"
  ],
  [
   "e",
   "e",
   "ee"
  ],
  [
   "whi",
   "ch</w>",
   "which</w>"
  ],
  [
   "t",
   "er</w>",
   "ter</w>"
  ],
  [
   "s",
   "p",
   "sp"
  ],
  [
   "6",
   "</w>",
   "6</w>"
  ],
  [
   "s",
   "o</w>",
   "so</w>"
  ],
  [
   "v",
   "er",
   "ver"
  ],
  [
   "d",
   "e",
   "de"
  ],
  [
   "ou",
   "gh",
   "ough"
  ],
  [
   "q",
   "u",
   "qu"
  ],
  [
   "ou",
   "</w>",
   "ou</w>"
  ],
  [
   "oo",
   "d</w>",
   "ood</w>"
  ],
  [
   "i",
   "m",
   "im"
  ],
  [
   "pl",
   "an",
   "plan"
  ],
  [
   "our",
   "</w>",
   "our</w>"
  ],
  [
   "no",
   "t</w>",
   "not</w>"
  ],
  [
   "ro",
   "w",
   "row"
  ],
  [
   "c",
   "l",
   "cl"
  ],
  [
   "es",
   "t</w>",
   "est</w>"
  ],
  [
   "a",
   "y</w>",
   "ay</w>"
  ],
  [
   "8",
   "</w>",
   "8</w>"
  ],
  [
   "9",
   "</w>",
   "9</w>"
  ],
  [
   "c",
   "ul",
   "cul"
  ],
  [
   "m",
   "an",
   "man"
  ],
  [
   "e",
   "a",
   "ea"
  ],
  [
   "u",
   "e</w>",
   "ue</w>"
  ],
  [
   "/",
   "</w>",
   "/</w>"
  ],
  [
   "t",
   "a",
   "ta"
  ],
  [
   "on",
   "e</w>",
   "one</w>"
  ],
  [
   "on",
   "s</w>",
   "ons</w>"
  ],
  [
   "ir",
   "</w>",
   "ir</w>"
  ],
  [
   "at",
   "e</w>",
   "ate</w>"
  ],
  [
   "l",
   "l</w>",
   "ll</w>"
  ],
  [
   "o",
   "p",
   "op"
  ],
  [
   "a",
   "p",
   "ap"
  ],
  [
   "i",
   "d",
   "id"
  ],
  [
   "l",
   "d</w>",
   "ld</w>"
  ],
  [
   "y",
   "ou</w>",
   "you</w>"
  ],
  [
   "a",
   "d",
   "ad"
  ],
  [
   "i",
   "l</w>",
   "il</w>"
  ],
  [
   "th",
   "is</w>",
   "this</w>"
  ],
  [
   "l",
   "and</w>",
   "land</w>"
  ],
  [
   "t",
   "ed</w>",
   "ted</w>"
  ],
  [
   "f",
   "f",
   "ff"
  ],
  [
   "f",
   "i",
   "fi"
  ],
  [
   "s",
   "t</w>",
   "st</w>"
  ],
  [
   "ou",
   "t</w>",
   "out</w>"
  ],
  [
   "om",
   "e</w>",
   "ome</w>"
  ],
  [
   "e",
   "t",
   "et"
  ],
  [
   "w",
   "or",
   "wor"
  ],
  [
   "w",
   "ere</w>",
   "were</w>"
  ],
  [
   "o",
   "c",
   "oc"
  ],
  [
   "g",
   "e</w>",
   "ge</w>"
  ],
  [
   "r",
   "u",
   "ru"
  ],
  [
   "p",
   "ar",
   "par"
  ],
  [
   "ti",
   "m",
   "tim"
  ],
  [
   "ti",
   "c",
   "tic"
  ],
  [
   "c",
   "ro",
   "cro"
  ],
  [
   "p",
   "er",
   "per"
  ],
  [
   "ur",
   "e</w>",
   "ure</w>"
  ],
  [
   "f",
   "ar",
   "far"
  ],
  [
   "ough",
   "</w>",
   "ough</w>"
  ],
  [
   "in",
   "e</w>",
   "ine</w>"
  ],
  [
   "al",
   "l",
   "all"
  ],
  [
   "en",
   "t",
   "ent"
  ],
  [
   "bu",
   "t</w>",
   "but</w>"
  ],
  [
   "the",
   "y</w>",
   "they</w>"
  ],
  [
   "du",
   "c",
   "duc"
  ],
  [
   "os",
   "t</w>",
   "ost</w>"
  ],
  [
   "or",
   "e</w>",
   "ore</w>"
  ],
  [
   "h",
   "is</w>",
   "his</w>"
  ],
  [
   "e",
   "t</w>",
   "et</w>"
  ],
  [
   "g",
   "re",
   "gre"
  ],
  [
   "n",
   "e</w>",
   "ne</w>"
  ],
  [
   "o",
   "ther</w>",
   "other</w>"
  ],
  [
   "ab",
   "le</w>",
   "able</w>"
  ],
  [
   "t",
   "er",
   "ter"
  ],
  [
   "m",
   "e",
   "me"
  ],
  [
   "h",
   "i",
   "hi"
  ],
  [
   "the",
   "ir</w>",
   "their</w>"
  ],
  [
   "e",
   "v",
   "ev"
  ],
  [
   "u",
   "m",
   "um"
  ],
  [
   "w",
   "</w>",
   "w</w>"
  ],
  [
   "I",
   "n</w>",
   "In</w>"
  ],
  [
   "d",
   "ing</w>",
   "ding</w>"
  ],
  [
   "in",
   "g",
   "ing"
  ],
  [
   "ou",
   "ld</w>",
   "ould</w>"
  ],
  [
   "p",
   "re",
   "pre"
  ],
  [
   "so",
   "il</w>",
   "soil</w>"
  ],
  [
   "cul",
   "tur",
   "cultur"
  ],
  [
   "al",
   "ly</w>",
   "ally</w>"
  ],
  [
   "at",
   "er</w>",
   "ater</w>"
  ],
  [
   "i",
   "s",
   "is"
  ],
  [
   "I",
   "</w>",
   "I</w>"
  ],
  [
   "el",
   "l</w>",
   "ell</w>"
  ],
  [
   "the",
   "m</w>",
   "them</w>"
  ],
  [
   "t",
   "w",
   "tw"
  ],
  [
   "an",
   "d",
   "and"
  ],
  [
   "g",
   "row",
   "grow"
  ],
  [
   "e",
   "st",
   "est"
  ],
  [
   "p",
   "or",
   "por"
  ],
  [
   "n",
   "e",
   "ne"
  ],
  [
   "us",
   "e</w>",
   "use</w>"
  ],
  [
   "ha",
   "ve</w>",
   "have</w>"
  ],
  [
   "g",
   "ra",
   "gra"
  ],
  [
   "ag",
   "e</w>",
   "age</w>"
  ],
  [
   "r",
   "y</w>",
   "ry</w>"
  ],
  [
   "c",
   "or",
   "cor"
  ],
  [
   "ri",
   "cultur",
   "ricultur"
  ],
  [
   "d",
   "o",
   "do"
  ],
  [
   "es",
   "e</w>",
   "ese</w>"
  ],
  [
   "1",
   "8",
   "18"
  ],
  [
   "A",
   "</w>",
   "A</w>"
  ],
  [
   "as",
   "e</w>",
   "ase</w>"
  ],
  [
   "u",
   "t",
   "ut"
  ],
  [
   "su",
   "ch</w>",
   "such</w>"
  ],
  [
   "el",
   "y</w>",
   "ely</w>"
  ],
  [
   "oun",
   "d</w>",
   "ound</w>"
  ],
  [
   "g",
   "r",
   "gr"
  ],
  [
   "a",
   "i",
   "ai"
  ],
  [
   "p",
   "s</w>",
   "ps</w>"
  ],
  [
   "ma",
   "y</w>",
   "may</w>"
  ],
  [
   "at",
   "ed</w>",
   "ated</w>"
  ],
  [
   "a",
   "y",
   "ay"
  ],
  [
   "m",
   "ore</w>",
   "more</w>"
  ],
  [
   "as",
   "t</w>",
   "ast</w>"
  ],
  [
   "a",
   "ti",
   "ati"
  ],
  [
   "far",
   "m",
   "farm"
  ],
  [
   "sh",
   "all</w>",
   "shall</w>"
  ],
  [
   "th",
   "en</w>",
   "then</w>"
  ],
  [
   "gh",
   "t</w>",
   "ght</w>"
  ],
  [
   "wi",
   "ll</w>",
   "will</w>"
  ],
  [
   "p",
   "h",
   "ph"
  ],
  [
   "t",
   "o",
   "to"
  ],
  [
   "c",
   "an</w>",
   "can</w>"
  ],
  [
   "b",
   "o",
   "bo"
  ],
  [
   "ol",
   "l",
   "oll"
  ],
  [
   "sh",
   "</w>",
   "sh</w>"
  ],
  [
   "y",
   "our</w>",
   "your</w>"
  ],
  [
   "os",
   "e</w>",
   "ose</w>"
  ],
  [
   "m",
   "u",
   "mu"
  ],
  [
   "t",
   "ing</w>",
   "ting</w>"
  ],
  [
   "f",
   "er",
   "fer"
  ],
  [
   "d",
   "er</w>",
   "der</w>"
  ],
  [
   "f",
   "l",
   "fl"
  ],
  [
   "an",
   "t</w>",
   "ant</w>"
  ],
  [
   "c",
   "ar",
   "car"
  ],
  [
   "h",
   "ar",
   "har"
  ],
  [
   "pro",
   "duc",
   "produc"
  ],
  [
   "1",
   "5",
   "15"
  ],
  [
   "m",
   "o",
   "mo"
  ],
  [
   "in",
   "c",
   "inc"
  ],
  [
   "p",
   "o",
   "po"
  ],
  [
   "w",
   "ater</w>",
   "water</w>"
  ],
  [
   "v",
   "i",
   "vi"
  ],
  [
   "0",
   "0</w>",
   "00</w>"
  ],
  [
   "e",
   "at</w>",
   "eat</w>"
  ],
  [
   "g",
   "i",
   "gi"
  ],
  [
   "s",
   "ome</w>",
   "some</w>"
  ],
  [
   "m",
   "ost</w>",
   "most</w>"
  ],
  [
   "n",
   "i",
   "ni"
  ],
  [
   "t",
   "y</w>",
   "ty</w>"
  ],
  [
   "am",
   "e</w>",
   "ame</w>"
  ],
  [
   "th",
   "er",
   "ther"
  ],
  [
   "d",
   "er",
   "der"
  ],
  [
   "g",
   "ood</w>",
   "good</w>"
  ],
  [
   "_",
   "s</w>",
   "_s</w>"
  ],
  [
   "ar",
   "</w>",
   "ar</w>"
  ],
  [
   "ic",
   "</w>",
   "ic</w>"
  ],
  [
   "s",
   "er",
   "ser"
  ],
  [
   "us",
   "t</w>",
   "ust</w>"
  ],
  [
   "es",
   "s</w>",
   "ess</w>"
  ],
  [
   "p",
   "e</w>",
   "pe</w>"
  ],
  [
   "al",
   "so</w>",
   "also</w>"
  ],
  [
   "plan",
   "t</w>",
   "plant</w>"
  ],
  [
   "c",
   "a",
   "ca"
  ],
  [
   "y",
   "ear",
   "year"
  ],
  [
   "it",
   "y</w>",
   "ity</w>"
  ],
  [
   "en",
   "ts</w>",
   "ents</w>"
  ],
  [
   "g",
   "en",
   "gen"
  ],
  [
   "i",
   "f</w>",
   "if</w>"
  ],
  [
   "ou",
   "s</w>",
   "ous</w>"
  ],
  [
   "u",
   "s</w>",
   "us</w>"
  ],
  [
   "ag",
   "ricultur",
   "agricultur"
  ],
  [
   "l",
   "ar",
   "lar"
  ],
  [
   "t",
   "e",
   "te"
  ],
  [
   "us",
   "ed</w>",
   "used</w>"
  ],
  [
   "re",
   "e</w>",
   "ree</w>"
  ],
  [
   "re",
   "a",
   "rea"
  ],
  [
   "p",
   "e",
   "pe"
  ],
  [
   "com",
   "m",
   "comm"
  ],
  [
   "h",
   "e</w>",
   "he</w>"
  ],
  [
   "mu",
   "ch</w>",
   "much</w>"
  ],
  [
   "p",
   "ri",
   "pri"
  ],
  [
   "in",
   "to</w>",
   "into</w>"
  ],
  [
   "c",
   "oun",
   "coun"
  ],
  [
   "S",
   "</w>",
   "S</w>"
  ],
  [
   "ha",
   "d</w>",
   "had</w>"
  ],
  [
   "E",
   "n",
   "En"
  ],
  [
   "r",
   "an",
   "ran"
  ],
  [
   "ar",
   "i",
   "ari"
  ],
  [
   "t",
   "le</w>",
   "tle</w>"
  ],
  [
   "W",
   "h",
   "Wh"
  ],
  [
   "e",
   "i",
   "ei"
  ],
  [
   "be",
   "en</w>",
   "been</w>"
  ],
  [
   "t",
   "en",
   "ten"
  ],
  [
   "b",
   "i",
   "bi"
  ],
  [
   "a",
   "f",
   "af"
  ],
  [
   "h",
   "as</w>",
   "has</w>"
  ],
  [
   "c",
   "o",
   "co"
  ],
  [
   "tim",
   "e</w>",
   "time</w>"
  ],
  [
   "a",
   "st",
   "ast"
  ],
  [
   "en",
   "ce</w>",
   "ence</w>"
  ],
  [
   "ver",
   "y</w>",
   "very</w>"
  ],
  [
   "ol",
   "d</w>",
   "old</w>"
  ],
  [
   "an",
   "y</w>",
   "any</w>"
  ],
  [
   "l",
   "l",
   "ll"
  ],
  [
   "i",
   "ts</w>",
   "its</w>"
  ],
  [
   "2",
   "0",
   "20"
  ],
  [
   "u",
   "t</w>",
   "ut</w>"
  ],
  [
   "con",
   "t",
   "cont"
  ],
  [
   "1",
   "7",
   "17"
  ],
  [
   "I",
   "n",
   "In"
  ],
  [
   "man",
   "y</w>",
   "many</w>"
  ],
  [
   "c",
   "i",
   "ci"
  ],
  [
   "o",
   "f",
   "of"
  ],
  [
   "for",
   "e</w>",
   "fore</w>"
  ],
  [
   "wh",
   "en</w>",
   "when</w>"
  ],
  [
   "u",
   "m</w>",
   "um</w>"
  ],
  [
   "th",
   "an</w>",
   "than</w>"
  ],
  [
   "on",
   "g</w>",
   "ong</w>"
  ],
  [
   "m",
   "il",
   "mil"
  ],
  [
   "s",
   "es</w>",
   "ses</w>"
  ],
  [
   "ow",
   "n</w>",
   "own</w>"
  ],
  [
   "s",
   "m",
   "sm"
  ],
  [
   "p",
   "er</w>",
   "per</w>"
  ],
  [
   "t",
   "on</w>",
   "ton</w>"
  ],
  [
   "u",
   "st",
   "ust"
  ],
  [
   "pl",
   "e</w>",
   "ple</w>"
  ],
  [
   "f",
   "ir",
   "fir"
  ],
  [
   "m",
   "i",
   "mi"
  ],
  [
   "w",
   "ell</w>",
   "well</w>"
  ],
  [
   "a",
   "v",
   "av"
  ],
  [
   "a",
   "in",
   "ain"
  ],
  [
   "at",
   "es</w>",
   "ates</w>"
  ],
  [
   "n",
   "o</w>",
   "no</w>"
  ],
  [
   "ar",
   "d</w>",
   "ard</w>"
  ],
  [
   "k",
   "ing</w>",
   "king</w>"
  ],
  [
   "b",
   "l",
   "bl"
  ],
  [
   "v",
   "er</w>",
   "ver</w>"
  ],
  [
   "plan",
   "ts</w>",
   "plants</w>"
  ],
  [
   "an",
   "ce</w>",
   "ance</w>"
  ],
  [
   "th",
   "ese</w>",
   "these</w>"
  ],
  [
   "i",
   "e</w>",
   "ie</w>"
  ],
  [
   "k",
   "s</w>",
   "ks</w>"
  ],
  [
   "c",
   "</w>",
   "c</w>"
  ],
  [
   "y",
   "e</w>",
   "ye</w>"
  ],
  [
   "ti",
   "v",
   "tiv"
  ],
  [
   "ar",
   "y</w>",
   "ary</w>"
  ],
  [
   "n",
   "it",
   "nit"
  ],
  [
   "b",
   "ar",
   "bar"
  ],
  [
   "ot",
   "e</w>",
   "ote</w>"
  ],
  [
   "tw",
   "o</w>",
   "two</w>"
  ],
  [
   "f",
   "e</w>",
   "fe</w>"
  ],
  [
   "c",
   "es</w>",
   "ces</w>"
  ],
  [
   "1",
   "0</w>",
   "10</w>"
  ],
  [
   "d",
   "ed</w>",
   "ded</w>"
  ],
  [
   "l",
   "o",
   "lo"
  ],
  [
   "e",
   "th</w>",
   "eth</w>"
  ],
  [
   "e",
   "u",
   "eu"
  ],
  [
   "wh",
   "eat</w>",
   "wheat</w>"
  ],
  [
   "th",
   "ere</w>",
   "there</w>"
  ],
  [
   "se",
   "e",
   "see"
  ],
  [
   "I",
   "t</w>",
   "It</w>"
  ],
  [
   "ra",
   "c",
   "rac"
  ],
  [
   "t",
   "en</w>",
   "ten</w>"
  ],
  [
   "s",
   "el",
   "sel"
  ],
  [
   "el",
   "d</w>",
   "eld</w>"
  ],
  [
   "be",
   "ing</w>",
   "being</w>"
  ],
  [
   "En",
   "g",
   "Eng"
  ],
  [
   "k",
   "n",
   "kn"
  ],
  [
   "cro",
   "p</w>",
   "crop</w>"
  ],
  [
   "ing",
   "s</w>",
   "ings</w>"
  ],
  [
   "m",
   "ent</w>",
   "ment</w>"
  ],
  [
   "g",
   "an",
   "gan"
  ],
  [
   "cro",
   "ps</w>",
   "crops</w>"
  ],
  [
   "ti",
   "ons</w>",
   "tions</w>"
  ],
  [
   "ti",
   "es</w>",
   "ties</w>"
  ],
  [
   "1",
   "9",
   "19"
  ],
  [
   "ec",
   "i",
   "eci"
  ],
  [
   "b",
   "er</w>",
   "ber</w>"
  ],
  [
   "inc",
   "re",
   "incre"
  ],
  [
   "E",
   "</w>",
   "E</w>"
  ],
  [
   "p",
   "os",
   "pos"
  ],
  [
   "m",
   "e</w>",
   "me</w>"
  ],
  [
   "p",
   "i",
   "pi"
  ],
  [
   "ir",
   "e</w>",
   "ire</w>"
  ],
  [
   "b",
   "le</w>",
   "ble</w>"
  ],
  [
   "gre",
   "at</w>",
   "great</w>"
  ],
  [
   "ow",
   "ing</w>",
   "owing</w>"
  ],
  [
   "fir",
   "st</w>",
   "first</w>"
  ],
  [
   "us",
   "b",
   "usb"
  ],
  [
   "i",
   "</w>",
   "i</w>"
  ],
  [
   "v",
   "</w>",
   "v</w>"
  ],
  [
   "s",
   "y",
   "sy"
  ],
  [
   "Th",
   "is</w>",
   "This</w>"
  ],
  [
   "wi",
   "th",
   "with"
  ],
  [
   "m",
   "an</w>",
   "man</w>"
  ],
  [
   "th",
   "y</w>",
   "thy</w>"
  ],
  [
   "c",
   "ot",
   "cot"
  ],
  [
   "ay",
   "s</w>",
   "ays</w>"
  ],
  [
   "1",
   "6",
   "16"
  ],
  [
   "f",
   "ood</w>",
   "food</w>"
  ],
  [
   "g",
   "ar",
   "gar"
  ],
  [
   "ab",
   "out</w>",
   "about</w>"
  ],
  [
   "ma",
   "de</w>",
   "made</w>"
  ],
  [
   "es",
   "s",
   "ess"
  ],
  [
   "el",
   "l",
   "ell"
  ],
  [
   "al",
   "s</w>",
   "als</w>"
  ],
  [
   "ti",
   "li",
   "tili"
  ],
  [
   "f",
   "ul",
   "ful"
  ],
  [
   "sh",
   "ould</w>",
   "should</w>"
  ],
  [
   "f",
   "e",
   "fe"
  ],
  [
   "c",
   "en",
   "cen"
  ],
  [
   "i",
   "st",
   "ist"
  ],
  [
   "p",
   "en",
   "pen"
  ],
  [
   "wh",
   "ere</w>",
   "where</w>"
  ],
  [
   "w",
   "e</w>",
   "we</w>"
  ],
  [
   "C",
   "h",
   "Ch"
  ],
  [
   "ro",
   "n",
   "ron"
  ],
  [
   "b",
   "est</w>",
   "best</w>"
  ],
  [
   "w",
   "ee",
   "wee"
  ],
  [
   "o",
   "g",
   "og"
  ],
  [
   "ma",
   "ke</w>",
   "make</w>"
  ],
  [
   "ac",
   "e</w>",
   "ace</w>"
  ],
  [
   "a",
   "u",
   "au"
  ],
  [
   "r",
   "e</w>",
   "re</w>"
  ],
  [
   "le",
   "y</w>",
   "ley</w>"
  ],
  [
   "af",
   "ter</w>",
   "after</w>"
  ],
  [
   "t",
   "ri",
   "tri"
  ],
  [
   "ha",
   "ue</w>",
   "haue</w>"
  ],
  [
   "m",
   "ust</w>",
   "must</w>"
  ],
  [
   "t",
   "re",
   "tre"
  ],
  [
   "x",
   "</w>",
   "x</w>"
  ],
  [
   "ev",
   "er</w>",
   "ever</w>"
  ],
  [
   "l",
   "ab",
   "lab"
  ],
  [
   "p",
   "on</w>",
   "pon</w>"
  ],
  [
   "li",
   "ke</w>",
   "like</w>"
  ],
  [
   "e",
   "p",
   "ep"
  ],
  [
   "h",
   "or",
   "hor"
  ],
  [
   "A",
   "n",
   "An"
  ],
  [
   "R",
   "</w>",
   "R</w>"
  ],
  [
   "or",
   "gan",
   "organ"
  ],
  [
   "usb",
   "and",
   "usband"
  ],
  [
   "re",
   "s",
   "res"
  ],
  [
   "N",
   "</w>",
   "N</w>"
  ],
  [
   "s",
   "ti",
   "sti"
  ],
  [
   "ri",
   "g",
   "rig"
  ],
  [
   "on",
   "ly</w>",
   "only</w>"
  ],
  [
   "v",
   "ed</w>",
   "ved</w>"
  ],
  [
   "g",
   "en</w>",
   "gen</w>"
  ],
  [
   "t",
   "e</w>",
   "te</w>"
  ],
  [
   "fer",
   "tili",
   "fertili"
  ],
  [
   "hi",
   "gh",
   "high"
  ],
  [
   "f",
   "ru",
   "fru"
  ],
  [
   "%",
   "</w>",
   "%</w>"
  ],
  [
   "w",
   "ay</w>",
   "way</w>"
  ],
  [
   "bo",
   "th</w>",
   "both</w>"
  ],
  [
   "i",
   "z",
   "iz"
  ],
  [
   "v",
   "n",
   "vn"
  ],
  [
   "ee",
   "p</w>",
   "eep</w>"
  ],
  [
   "c",
   "an",
   "can"
  ],
  [
   "it",
   "e</w>",
   "ite</w>"
  ],
  [
   "f",
   "in",
   "fin"
  ],
  [
   "t",
   "ter</w>",
   "tter</w>"
  ],
  [
   "re",
   "c",
   "rec"
  ],
  [
   "st",
   "e",
   "ste"
  ],
  [
   "o",
   "ver</w>",
   "over</w>"
  ],
  [
   "m",
   "s</w>",
   "ms</w>"
  ],
  [
   "c",
   "at",
   "cat"
  ],
  [
   "all",
   "ed</w>",
   "alled</w>"
  ],
  [
   "e",
   "g",
   "eg"
  ],
  [
   "com",
   "p",
   "comp"
  ],
  [
   "P",
   "l",
   "Pl"
  ],
  [
   "en",
   "ti",
   "enti"
  ],
  [
   "d",
   "es",
   "des"
  ],
  [
   "h",
   "ou",
   "hou"
  ],
  [
   "oc",
   "k</w>",
   "ock</w>"
  ],
  [
   "ra",
   "tion</w>",
   "ration</w>"
  ],
  [
   "m",
   "at",
   "mat"
  ],
  [
   "l",
   "es</w>",
   "les</w>"
  ],
  [
   "d",
   "ay</w>",
   "day</w>"
  ],
  [
   "ca",
   "use</w>",
   "cause</w>"
  ],
  [
   "u",
   "p</w>",
   "up</w>"
  ],
  [
   "v",
   "es</w>",
   "ves</w>"
  ],
  [
   "en",
   "d</w>",
   "end</w>"
  ],
  [
   "w",
   "in",
   "win"
  ],
  [
   "p",
   "r",
   "pr"
  ],
  [
   "agricultur",
   "e</w>",
   "agriculture</w>"
  ],
  [
   "sm",
   "all</w>",
   "small</w>"
  ],
  [
   "o",
   "b",
   "ob"
  ],
  [
   "m",
   "in",
   "min"
  ],
  [
   "m",
   "on",
   "mon"
  ],
  [
   "s",
   "ame</w>",
   "same</w>"
  ],
  [
   "gr",
   "ound</w>",
   "ground</w>"
  ],
  [
   "th",
   "r",
   "thr"
  ],
  [
   "m",
   "er",
   "mer"
  ],
  [
   "wh",
   "o</w>",
   "who</w>"
  ],
  [
   "ch",
   "an",
   "chan"
  ],
  [
   "year",
   "</w>",
   "year</w>"
  ],
  [
   "v",
   "el",
   "vel"
  ],
  [
   "es",
   "tic",
   "estic"
  ],
  [
   "c",
   "alled</w>",
   "called</w>"
  ],
  [
   "e",
   "y</w>",
   "ey</w>"
  ],
  [
   "a",
   "d</w>",
   "ad</w>"
  ],
  [
   "cor",
   "n</w>",
   "corn</w>"
  ],
  [
   "G",
   "</w>",
   "G</w>"
  ],
  [
   "be",
   "fore</w>",
   "before</w>"
  ],
  [
   "ic",
   "i",
   "ici"
  ],
  [
   "S",
   "t",
   "St"
  ],
  [
   "wh",
   "at</w>",
   "what</w>"
  ],
  [
   "or",
   "s</w>",
   "ors</w>"
  ],
  [
   "v",
   "ari",
   "vari"
  ],
  [
   "m",
   "ar",
   "mar"
  ],
  [
   "b",
   "</w>",
   "b</w>"
  ],
  [
   "h",
   "e",
   "he"
  ],
  [
   "d",
   "r",
   "dr"
  ],
  [
   "2",
   "0</w>",
   "20</w>"
  ],
  [
   "in",
   "s</w>",
   "ins</w>"
  ],
  [
   "an",
   "ds</w>",
   "ands</w>"
  ],
  [
   "7",
   "7</w>",
   "77</w>"
  ],
  [
   "cot",
   "ton</w>",
   "cotton</w>"
  ],
  [
   "cl",
   "u",
   "clu"
  ],
  [
   "ic",
   "al</w>",
   "ical</w>"
  ],
  [
   "f",
   "u",
   "fu"
  ],
  [
   "pre",
   "s",
   "pres"
  ],
  [
   "ai",
   "d</w>",
   "aid</w>"
  ],
  [
   "id",
   "en",
   "iden"
  ],
  [
   "ec",
   "t</w>",
   "ect</w>"
  ],
  [
   "se",
   "c",
   "sec"
  ],
  [
   "se",
   "as",
   "seas"
  ],
  [
   "as",
   "s</w>",
   "ass</w>"
  ],
  [
   "o",
   "d</w>",
   "od</w>"
  ],
  [
   "tur",
   "y</w>",
   "tury</w>"
  ],
  [
   "il",
   "l</w>",
   "ill</w>"
  ],
  [
   "em",
   "ent</w>",
   "ement</w>"
  ],
  [
   "t",
   "r",
   "tr"
  ],
  [
   "ir",
   "rig",
   "irrig"
  ],
  [
   "b",
   "re",
   "bre"
  ],
  [
   "k",
   "es</w>",
   "kes</w>"
  ],
  [
   "f",
   "t</w>",
   "ft</w>"
  ],
  [
   "di",
   "s",
   "dis"
  ],
  [
   "ther",
   "e",
   "there"
  ],
  [
   "o",
   "t</w>",
   "ot</w>"
  ],
  [
   "h",
   "ea",
   "hea"
  ],
  [
   "n",
   "ow</w>",
   "now</w>"
  ],
  [
   "cen",
   "tury</w>",
   "century</w>"
  ],
  [
   "il",
   "l",
   "ill"
  ],
  [
   "b",
   "r",
   "br"
  ],
  [
   "gen",
   "er",
   "gener"
  ],
  [
   "iden",
   "ote</w>",
   "idenote</w>"
  ],
  [
   "S",
   "idenote</w>",
   "Sidenote</w>"
  ],
  [
   "In",
   "di",
   "Indi"
  ],
  [
   "ati",
   "ons</w>",
   "ations</w>"
  ],
  [
   "w",
   "e",
   "we"
  ],
  [
   "i",
   "a</w>",
   "ia</w>"
  ],
  [
   "y",
   "n",
   "yn"
  ],
  [
   "ro",
   "gen</w>",
   "rogen</w>"
  ],
  [
   "l",
   "ong</w>",
   "long</w>"
  ],
  [
   "id",
   "es</w>",
   "ides</w>"
  ],
  [
   "li",
   "t",
   "lit"
  ],
  [
   "g",
   "a",
   "ga"
  ],
  [
   "di",
   "ff",
   "diff"
  ],
  [
   "ch",
   "es</w>",
   "ches</w>"
  ],
  [
   "year",
   "s</w>",
   "years</w>"
  ],
  [
   "d",
   "ri",
   "dri"
  ],
  [
   "1",
   "0",
   "10"
  ],
  [
   "t",
   "ra",
   "tra"
  ],
  [
   "of",
   "ten</w>",
   "often</w>"
  ],
  [
   "lar",
   "ge</w>",
   "large</w>"
  ],
  [
   "ta",
   "ke</w>",
   "take</w>"
  ],
  [
   "fertili",
   "z",
   "fertiliz"
  ],
  [
   "1",
   "3",
   "13"
  ],
  [
   "st",
   "ri",
   "stri"
  ],
  [
   "agricultur",
   "al</w>",
   "agricultural</w>"
  ],
  [
   "es",
   "se</w>",
   "esse</w>"
  ],
  [
   "tim",
   "es</w>",
   "times</w>"
  ],
  [
   "l",
   "or",
   "lor"
  ],
  [
   "im",
   "por",
   "impor"
  ],
  [
   "com",
   "e</w>",
   "come</w>"
  ],
  [
   "T",
   "</w>",
   "T</w>"
  ],
  [
   "p",
   "oll",
   "poll"
  ],
  [
   "d",
   "ra",
   "dra"
  ],
  [
   "d",
   "ec",
   "dec"
  ],
  [
   "to",
   "o</w>",
   "too</w>"
  ],
  [
   "d",
   "en</w>",
   "den</w>"
  ],
  [
   "cul",
   "tiv",
   "cultiv"
  ],
  [
   "1",
   "1",
   "11"
  ],
  [
   "v",
   "ing</w>",
   "ving</w>"
  ],
  [
   "sp",
   "eci",
   "speci"
  ],
  [
   "al",
   "e</w>",
   "ale</w>"
  ],
  [
   "ag",
   "es</w>",
   "ages</w>"
  ],
  [
   "ex",
   "c",
   "exc"
  ],
  [
   "ea",
   "ch</w>",
   "each</w>"
  ],
  [
   "be",
   "g",
   "beg"
  ],
  [
   "n",
   "ing</w>",
   "ning</w>"
  ],
  [
   "0",
   "00</w>",
   "000</w>"
  ],
  [
   "thr",
   "ough</w>",
   "through</w>"
  ],
  [
   "su",
   "p",
   "sup"
  ],
  [
   "c",
   "er",
   "cer"
  ],
  [
   "du",
   "ce</w>",
   "duce</w>"
  ],
  [
   "A",
   "g",
   "Ag"
  ],
  [
   "in",
   "clu",
   "inclu"
  ],
  [
   "f",
   "ur",
   "fur"
  ],
  [
   "d",
   "o</w>",
   "do</w>"
  ],
  [
   "li",
   "e</w>",
   "lie</w>"
  ],
  [
   "o",
   "x",
   "ox"
  ],
  [
   "th",
   "ough</w>",
   "though</w>"
  ],
  [
   "th",
   "ing</w>",
   "thing</w>"
  ],
  [
   "tur",
   "e</w>",
   "ture</w>"
  ],
  [
   "n",
   "at",
   "nat"
  ],
  [
   "th",
   "ose</w>",
   "those</w>"
  ],
  [
   "tic",
   "</w>",
   "tic</w>"
  ],
  [
   "c",
   "ol",
   "col"
  ],
  [
   "ap",
   "p",
   "app"
  ],
  [
   "i",
   "g",
   "ig"
  ],
  [
   "1",
   "4",
   "14"
  ],
  [
   "incre",
   "as",
   "increas"
  ],
  [
   "e",
   "ff",
   "eff"
  ],
  [
   "par",
   "t</w>",
   "part</w>"
  ],
  [
   "1",
   "2",
   "12"
  ],
  [
   "£",
   "</w>",
   "£</w>"
  ],
  [
   "comm",
   "on</w>",
   "common</w>"
  ],
  [
   "irrig",
   "ation</w>",
   "irrigation</w>"
  ],
  [
   "w",
   "ould</w>",
   "would</w>"
  ],
  [
   "produc",
   "tion</w>",
   "production</w>"
  ],
  [
   "ow",
   "er</w>",
   "ower</w>"
  ],
  [
   "m",
   "er</w>",
   "mer</w>"
  ],
  [
   "h",
   "ol",
   "hol"
  ],
  [
   "ough",
   "t</w>",
   "ought</w>"
  ],
  [
   "on",
   "al</w>",
   "onal</w>"
  ],
  [
   "b",
   "ac",
   "bac"
  ],
  [
   "se",
   "ed</w>",
   "seed</w>"
  ],
  [
   "Eng",
   "land</w>",
   "England</w>"
  ],
  [
   "t",
   "ry</w>",
   "try</w>"
  ],
  [
   "r",
   "</w>",
   "r</w>"
  ],
  [
   "su",
   "b",
   "sub"
  ],
  [
   "i",
   "de</w>",
   "ide</w>"
  ],
  [
   "ste",
   "m</w>",
   "stem</w>"
  ],
  [
   "s",
   "or",
   "sor"
  ],
  [
   "li",
   "m",
   "lim"
  ],
  [
   "b",
   "rea",
   "brea"
  ],
  [
   "ful",
   "l</w>",
   "full</w>"
  ],
  [
   "?",
   "</w>",
   "?</w>"
  ],
  [
   "th",
   "ree</w>",
   "three</w>"
  ],
  [
   "S",
   "e",
   "Se"
  ],
  [
   "re",
   "qu",
   "requ"
  ],
  [
   "b",
   "er",
   "ber"
  ],
  [
   "se",
   "t</w>",
   "set</w>"
  ],
  [
   "1",
   "2</w>",
   "12</w>"
  ],
  [
   "pro",
   "c",
   "proc"
  ],
  [
   "lit",
   "tle</w>",
   "little</w>"
  ],
  [
   "il",
   "s</w>",
   "ils</w>"
  ],
  [
   "g",
   "e",
   "ge"
  ],
  [
   "be",
   "tter</w>",
   "better</w>"
  ],
  [
   "C",
   "om",
   "Com"
  ],
  [
   "as",
   "h",
   "ash"
  ],
  [
   "k",
   "in",
   "kin"
  ],
  [
   "g",
   "er</w>",
   "ger</w>"
  ],
  [
   "v",
   "al",
   "val"
  ],
  [
   "ust",
   "ration</w>",
   "ustration</w>"
  ],
  [
   "I",
   "ll",
   "Ill"
  ],
  [
   "im",
   "pro",
   "impro"
  ],
  [
   "d",
   "ge</w>",
   "dge</w>"
  ],
  [
   "m",
   "en</w>",
   "men</w>"
  ],
  [
   "e",
   "as",
   "eas"
  ],
  [
   "h",
   "y",
   "hy"
  ],
  [
   "f",
   "oll",
   "foll"
  ],
  [
   "ur",
   "ing</w>",
   "uring</w>"
  ],
  [
   "ti",
   "e</w>",
   "tie</w>"
  ],
  [
   "t",
   "em",
   "tem"
  ],
  [
   "p",
   "rac",
   "prac"
  ],
  [
   "nit",
   "rogen</w>",
   "nitrogen</w>"
  ],
  [
   "S",
   "u",
   "Su"
  ],
  [
   "con",
   "si",
   "consi"
  ],
  [
   "an",
   "s</w>",
   "ans</w>"
  ],
  [
   "Ill",
   "ustration</w>",
   "Illustration</w>"
  ],
  [
   "1",
   "6</w>",
   "16</w>"
  ],
  [
   "farm",
   "ers</w>",
   "farmers</w>"
  ],
  [
   "1",
   "7</w>",
   "17</w>"
  ],
  [
   "n",
   "um",
   "num"
  ],
  [
   "f",
   "ac",
   "fac"
  ],
  [
   "si",
   "on</w>",
   "sion</w>"
  ],
  [
   "F",
   "or</w>",
   "For</w>"
  ],
  [
   "ut",
   "ri",
   "utri"
  ],
  [
   "s",
   "l",
   "sl"
  ],
  [
   "c",
   "ri",
   "cri"
  ],
  [
   "ta",
   "in",
   "tain"
  ],
  [
   "ent",
   "ly</w>",
   "ently</w>"
  ],
  [
   "fu",
   "l</w>",
   "ful</w>"
  ],
  [
   "fi",
   "eld</w>",
   "field</w>"
  ],
  [
   "de",
   "vel",
   "devel"
  ],
  [
   "d",
   "es</w>",
   "des</w>"
  ],
  [
   "I",
   "f</w>",
   "If</w>"
  ],
  [
   "v",
   "pon</w>",
   "vpon</w>"
  ],
  [
   "an",
   "ts</w>",
   "ants</w>"
  ],
  [
   "y",
   "ing</w>",
   "ying</w>"
  ],
  [
   "p",
   "ot",
   "pot"
  ],
  [
   "d",
   "y</w>",
   "dy</w>"
  ],
  [
   "15",
   "77</w>",
   "1577</w>"
  ],
  [
   "k",
   "ed</w>",
   "ked</w>"
  ],
  [
   "with",
   "out</w>",
   "without</w>"
  ],
  [
   "w",
   "ar",
   "war"
  ],
  [
   "s",
   "ur",
   "sur"
  ],
  [
   "be",
   "cause</w>",
   "because</w>"
  ],
  [
   "_",
   "v</w>",
   "_v</w>"
  ],
  [
   "I",
   "I</w>",
   "II</w>"
  ],
  [
   "s",
   "om",
   "som"
  ],
  [
   "organ",
   "ic</w>",
   "organic</w>"
  ],
  [
   "e",
   "l</w>",
   "el</w>"
  ],
  [
   "em",
   "s</w>",
   "ems</w>"
  ],
  [
   "el",
   "ds</w>",
   "elds</w>"
  ],
  [
   "d",
   "en",
   "den"
  ],
  [
   "1",
   "5</w>",
   "15</w>"
  ],
  [
   "h",
   "er",
   "her"
  ],
  [
   "be",
   "tw",
   "betw"
  ],
  [
   "ow",
   "ever</w>",
   "owever</w>"
  ],
  [
   "y",
   "i",
   "yi"
  ],
  [
   "row",
   "</w>",
   "row</w>"
  ],
  [
   "ow",
   "s</w>",
   "ows</w>"
  ],
  [
   "fru",
   "it</w>",
   "fruit</w>"
  ],
  [
   "1",
   "1</w>",
   "11</w>"
  ],
  [
   "ic",
   "e</w>",
   "ice</w>"
  ],
  [
   "s",
   "ed</w>",
   "sed</w>"
  ],
  [
   "n",
   "er</w>",
   "ner</w>"
  ],
  [
   "en",
   "e</w>",
   "ene</w>"
  ],
  [
   "ear",
   "ly</w>",
   "early</w>"
  ],
  [
   "c",
   "le",
   "cle"
  ],
  [
   "5",
   "0</w>",
   "50</w>"
  ],
  [
   "1",
   "3</w>",
   "13</w>"
  ],
  [
   "betw",
   "e",
   "betwe"
  ],
  [
   "an",
   "im",
   "anim"
  ],
  [
   "s",
   "c",
   "sc"
  ],
  [
   "F",
   "I",
   "FI"
  ],
  [
   "har",
   "v",
   "harv"
  ],
  [
   "w",
   "oo",
   "woo"
  ],
  [
   "oc",
   "c",
   "occ"
  ],
  [
   "cat",
   "tle</w>",
   "cattle</w>"
  ],
  [
   "A",
   "s</w>",
   "As</w>"
  ],
  [
   "un",
   "der</w>",
   "under</w>"
  ],
  [
   "T",
   "o</w>",
   "To</w>"
  ],
  [
   "ri",
   "e</w>",
   "rie</w>"
  ],
  [
   "p",
   "ur",
   "pur"
  ],
  [
   "en",
   "th</w>",
   "enth</w>"
  ],
  [
   "f",
   "it</w>",
   "fit</w>"
  ],
  [
   "ta",
   "in</w>",
   "tain</w>"
  ],
  [
   "n",
   "ec",
   "nec"
  ],
  [
   "t",
   "ree</w>",
   "tree</w>"
  ],
  [
   "t",
   "ly</w>",
   "tly</w>"
  ],
  [
   "farm",
   "ing</w>",
   "farming</w>"
  ],
  [
   "An",
   "d</w>",
   "And</w>"
  ],
  [
   "ti",
   "ve</w>",
   "tive</w>"
  ],
  [
   "or",
   "y</w>",
   "ory</w>"
  ],
  [
   "mi",
   "x",
   "mix"
  ],
  [
   "high",
   "</w>",
   "high</w>"
  ],
  [
   "t",
   "u",
   "tu"
  ],
  [
   "ow",
   "ne</w>",
   "owne</w>"
  ],
  [
   "i",
   "li",
   "ili"
  ],
  [
   "g",
   "o",
   "go"
  ],
  [
   "en",
   "c",
   "enc"
  ],
  [
   "e",
   "_</w>",
   "e_</w>"
  ],
  [
   "devel",
   "op",
   "develop"
  ],
  [
   "r",
   "es</w>",
   "res</w>"
  ],
  [
   "D",
   "</w>",
   "D</w>"
  ],
  [
   "sh",
   "ire</w>",
   "shire</w>"
  ],
  [
   "le",
   "t</w>",
   "let</w>"
  ],
  [
   "i",
   "es</w>",
   "ies</w>"
  ],
  [
   "ear",
   "th</w>",
   "earth</w>"
  ],
  [
   "r",
   "ed</w>",
   "red</w>"
  ],
  [
   "per",
   "i",
   "peri"
  ],
  [
   "l",
   "ess</w>",
   "less</w>"
  ],
  [
   "i",
   "d</w>",
   "id</w>"
  ],
  [
   "en",
   "g",
   "eng"
  ],
  [
   "see",
   "ds</w>",
   "seeds</w>"
  ],
  [
   "n",
   "utri",
   "nutri"
  ],
  [
   "le",
   "a",
   "lea"
  ],
  [
   "ear",
   "</w>",
   "ear</w>"
  ],
  [
   "pro",
   "duce</w>",
   "produce</w>"
  ],
  [
   "l",
   "and",
   "land"
  ],
  [
   "4",
   "0</w>",
   "40</w>"
  ],
  [
   "y",
   "et</w>",
   "yet</w>"
  ],
  [
   "wor",
   "k</w>",
   "work</w>"
  ],
  [
   "st",
   "ra",
   "stra"
  ],
  [
   "cl",
   "os",
   "clos"
  ],
  [
   "do",
   "th</w>",
   "doth</w>"
  ],
  [
   "FI",
   "G</w>",
   "FIG</w>"
  ],
  [
   "h",
   "usband",
   "husband"
  ],
  [
   "Indi",
   "a</w>",
   "India</w>"
  ],
  [
   "sp",
   "r",
   "spr"
  ],
  [
   "ol",
   "og",
   "olog"
  ],
  [
   "diff",
   "er",
   "differ"
  ],
  [
   "Ag",
   "ricultur",
   "Agricultur"
  ],
  [
   "su",
   "m",
   "sum"
  ],
  [
   "f",
   "ic",
   "fic"
  ],
  [
   "ac",
   "re</w>",
   "acre</w>"
  ],
  [
   "os",
   "ph",
   "osph"
  ],
  [
   "li",
   "sh</w>",
   "lish</w>"
  ],
  [
   "hi",
   "m</w>",
   "him</w>"
  ],
  [
   "O",
   "</w>",
   "O</w>"
  ],
  [
   "A",
   "c",
   "Ac"
  ],
  [
   "st",
   "an",
   "stan"
  ],
  [
   "tre",
   "es</w>",
   "trees</w>"
  ],
  [
   "N",
   "or",
   "Nor"
  ],
  [
   "p",
   "u",
   "pu"
  ],
  [
   "g",
   "s</w>",
   "gs</w>"
  ],
  [
   "g",
   "ed</w>",
   "ged</w>"
  ],
  [
   "at",
   "ing</w>",
   "ating</w>"
  ],
  [
   "ur",
   "es</w>",
   "ures</w>"
  ],
  [
   "B",
   "ar",
   "Bar"
  ],
  [
   "an",
   "other</w>",
   "another</w>"
  ],
  [
   "t",
   "ro",
   "tro"
  ],
  [
   "p",
   "p",
   "pp"
  ],
  [
   "1",
   "4</w>",
   "14</w>"
  ],
  [
   "y",
   "e",
   "ye"
  ],
  [
   "li",
   "ght</w>",
   "light</w>"
  ],
  [
   "pl",
   "ace</w>",
   "place</w>"
  ],
  [
   "ow",
   "ed</w>",
   "owed</w>"
  ],
  [
   "M",
   "ar",
   "Mar"
  ],
  [
   "er",
   "e",
   "ere"
  ],
  [
   "O",
   "f</w>",
   "Of</w>"
  ],
  [
   "1",
   "9</w>",
   "19</w>"
  ],
  [
   "1",
   "8</w>",
   "18</w>"
  ],
  [
   "sh",
   "ed</w>",
   "shed</w>"
  ],
  [
   "ne",
   "w</w>",
   "new</w>"
  ],
  [
   "s",
   "a",
   "sa"
  ],
  [
   "v",
   "p</w>",
   "vp</w>"
  ],
  [
   "th",
   "us</w>",
   "thus</w>"
  ],
  [
   "t",
   "ers</w>",
   "ters</w>"
  ],
  [
   "ow",
   "e</w>",
   "owe</w>"
  ],
  [
   "h",
   "al",
   "hal"
  ],
  [
   "ri",
   "ce</w>",
   "rice</w>"
  ],
  [
   "er",
   "y</w>",
   "ery</w>"
  ],
  [
   "grow",
   "</w>",
   "grow</w>"
  ],
  [
   "eu",
   "er</w>",
   "euer</w>"
  ],
  [
   "N",
   "ow</w>",
   "Now</w>"
  ],
  [
   "l",
   "ed</w>",
   "led</w>"
  ],
  [
   "betwe",
   "en</w>",
   "between</w>"
  ],
  [
   "p",
   "a",
   "pa"
  ],
  [
   "f",
   "ound</w>",
   "found</w>"
  ],
  [
   "ar",
   "e",
   "are"
  ],
  [
   "s",
   "al",
   "sal"
  ],
  [
   "s",
   "_</w>",
   "s_</w>"
  ],
  [
   "coun",
   "try</w>",
   "country</w>"
  ],
  [
   "ti",
   "ll</w>",
   "till</w>"
  ],
  [
   "ro",
   "o",
   "roo"
  ],
  [
   "ex",
   "t</w>",
   "ext</w>"
  ],
  [
   "n",
   "ee",
   "nee"
  ],
  [
   "h",
   "o",
   "ho"
  ],
  [
   "d",
   "a",
   "da"
  ],
  [
   "3",
   "0</w>",
   "30</w>"
  ],
  [
   "wor",
   "ld</w>",
   "world</w>"
  ],
  [
   "n",
   "ed</w>",
   "ned</w>"
  ],
  [
   "ei",
   "ther</w>",
   "either</w>"
  ],
  [
   "–",
   "</w>",
   "–</w>"
  ],
  [
   "su",
   "ff",
   "suff"
  ],
  [
   "le",
   "ast</w>",
   "least</w>"
  ],
  [
   "l",
   "a",
   "la"
  ],
  [
   "f",
   "oo",
   "foo"
  ],
  [
   "v",
   "en</w>",
   "ven</w>"
  ],
  [
   "st",
   "u",
   "stu"
  ],
  [
   "se",
   "e</w>",
   "see</w>"
  ],
  [
   "ac",
   "k</w>",
   "ack</w>"
  ],
  [
   "2",
   "5</w>",
   "25</w>"
  ],
  [
   "Se",
   "e</w>",
   "See</w>"
  ],
  [
   "st",
   "ru",
   "stru"
  ],
  [
   "si",
   "de</w>",
   "side</w>"
  ],
  [
   "i",
   "on</w>",
   "ion</w>"
  ],
  [
   "f",
   "all",
   "fall"
  ],
  [
   "Th",
   "ese</w>",
   "These</w>"
  ],
  [
   "ol",
   "e</w>",
   "ole</w>"
  ],
  [
   "li",
   "c",
   "lic"
  ],
  [
   "S",
   "ome</w>",
   "Some</w>"
  ],
  [
   "whi",
   "le</w>",
   "while</w>"
  ],
  [
   "ch",
   "ar",
   "char"
  ],
  [
   "t",
   "y",
   "ty"
  ],
  [
   "ac",
   "res</w>",
   "acres</w>"
  ],
  [
   "p",
   "estic",
   "pestic"
  ],
  [
   "hou",
   "se</w>",
   "house</w>"
  ],
  [
   "h",
   "el",
   "hel"
  ],
  [
   "p",
   "ut</w>",
   "put</w>"
  ],
  [
   "me",
   "th",
   "meth"
  ],
  [
   "grow",
   "th</w>",
   "growth</w>"
  ],
  [
   "f",
   "a",
   "fa"
  ],
  [
   "T",
   "H",
   "TH"
  ],
  [
   "li",
   "on</w>",
   "lion</w>"
  ],
  [
   "impor",
   "t",
   "import"
  ],
  [
   "grow",
   "ing</w>",
   "growing</w>"
  ],
  [
   "som",
   "e",
   "some"
  ],
  [
   "e",
   "w</w>",
   "ew</w>"
  ],
  [
   "b",
   "ur",
   "bur"
  ],
  [
   "2",
   "3</w>",
   "23</w>"
  ],
  [
   "k",
   "en</w>",
   "ken</w>"
  ],
  [
   "grow",
   "n</w>",
   "grown</w>"
  ],
  [
   "sy",
   "stem</w>",
   "system</w>"
  ],
  [
   "in",
   "sec",
   "insec"
  ],
  [
   "far",
   "m</w>",
   "farm</w>"
  ],
  [
   "ep",
   "t</w>",
   "ept</w>"
  ],
  [
   "P",
   "ro",
   "Pro"
  ],
  [
   "lab",
   "our",
   "labour"
  ],
  [
   "in",
   "ter",
   "inter"
  ],
  [
   "speci",
   "es</w>",
   "species</w>"
  ],
  [
   "incre",
   "ase</w>",
   "increase</w>"
  ],
  [
   "g",
   "es</w>",
   "ges</w>"
  ],
  [
   "do",
   "e</w>",
   "doe</w>"
  ],
  [
   "el",
   "s</w>",
   "els</w>"
  ],
  [
   "at",
   "s</w>",
   "ats</w>"
  ],
  [
   "Th",
   "ere</w>",
   "There</w>"
  ],
  [
   "ur",
   "al</w>",
   "ural</w>"
  ],
  [
   "ser",
   "v",
   "serv"
  ],
  [
   "n",
   "s</w>",
   "ns</w>"
  ],
  [
   "Eng",
   "lish</w>",
   "English</w>"
  ],
  [
   "di",
   "tion</w>",
   "dition</w>"
  ],
  [
   "c",
   "ould</w>",
   "could</w>"
  ],
  [
   "bar",
   "ley</w>",
   "barley</w>"
  ],
  [
   "l",
   "os",
   "los"
  ],
  [
   "est",
   "s</w>",
   "ests</w>"
  ],
  [
   "re",
   "si",
   "resi"
  ],
  [
   "farm",
   "er</w>",
   "farmer</w>"
  ],
  [
   "c",
   "ut</w>",
   "cut</w>"
  ],
  [
   "c",
   "re",
   "cre"
  ],
  [
   "t",
   "ran",
   "tran"
  ],
  [
   "3",
   "0",
   "30"
  ],
  [
   "wh",
   "ite</w>",
   "white</w>"
  ],
  [
   "sh",
   "eep</w>",
   "sheep</w>"
  ],
  [
   "m",
   "y</w>",
   "my</w>"
  ],
  [
   "car",
   "b",
   "carb"
  ],
  [
   "b",
   "ro",
   "bro"
  ],
  [
   "A",
   "f",
   "Af"
  ],
  [
   "2",
   "1</w>",
   "21</w>"
  ],
  [
   "l",
   "ands</w>",
   "lands</w>"
  ],
  [
   "in",
   "ce</w>",
   "ince</w>"
  ],
  [
   "er",
   "i",
   "eri"
  ],
  [
   "2",
   "8",
   "28"
  ],
  [
   "sh",
   "i",
   "shi"
  ],
  [
   "s",
   "k",
   "sk"
  ],
  [
   "g",
   "et</w>",
   "get</w>"
  ],
  [
   "ch",
   "i",
   "chi"
  ],
  [
   "vi",
   "ron",
   "viron"
  ],
  [
   "re",
   "ad",
   "read"
  ],
  [
   "poll",
   "in",
   "pollin"
  ],
  [
   "p",
   "es</w>",
   "pes</w>"
  ],
  [
   "z",
   "e</w>",
   "ze</w>"
  ],
  [
   "h",
   "ow</w>",
   "how</w>"
  ],
  [
   "cor",
   "ding</w>",
   "cording</w>"
  ],
  [
   "th",
   "ers</w>",
   "thers</w>"
  ],
  [
   "num",
   "ber</w>",
   "number</w>"
  ],
  [
   "H",
   "usband",
   "Husband"
  ],
  [
   "2",
   "4",
   "24"
  ],
  [
   "in",
   "es</w>",
   "ines</w>"
  ],
  [
   "F",
   "</w>",
   "F</w>"
  ],
  [
   "2",
   "4</w>",
   "24</w>"
  ],
  [
   "sti",
   "ll</w>",
   "still</w>"
  ],
  [
   "kn",
   "own</w>",
   "known</w>"
  ],
  [
   "P",
   "ar",
   "Par"
  ],
  [
   "su",
   "g",
   "sug"
  ],
  [
   "pl",
   "ac",
   "plac"
  ],
  [
   "di",
   "d</w>",
   "did</w>"
  ],
  [
   "u",
   "ally</w>",
   "ually</w>"
  ],
  [
   "s",
   "on</w>",
   "son</w>"
  ],
  [
   "for",
   "m</w>",
   "form</w>"
  ],
  [
   "et",
   "y</w>",
   "ety</w>"
  ],
  [
   "2",
   "3",
   "23"
  ],
  [
   "w",
   "ood</w>",
   "wood</w>"
  ],
  [
   "us",
   "wi",
   "uswi"
  ],
  [
   "g",
   "o</w>",
   "go</w>"
  ],
  [
   "b",
   "ri",
   "bri"
  ],
  [
   "pri",
   "ce</w>",
   "price</w>"
  ],
  [
   "ex",
   "am",
   "exam"
  ],
  [
   "2",
   "2</w>",
   "22</w>"
  ],
  [
   "op",
   "ul",
   "opul"
  ],
  [
   "ma",
   "in",
   "main"
  ],
  [
   "a",
   "m</w>",
   "am</w>"
  ],
  [
   "E",
   "4",
   "E4"
  ],
  [
   "s",
   "aid</w>",
   "said</w>"
  ],
  [
   "qu",
   "ar",
   "quar"
  ],
  [
   "l",
   "ing</w>",
   "ling</w>"
  ],
  [
   "b",
   "ed</w>",
   "bed</w>"
  ],
  [
   "am",
   "oun",
   "amoun"
  ],
  [
   "M",
   "</w>",
   "M</w>"
  ],
  [
   "b",
   "el",
   "bel"
  ],
  [
   "st",
   "ems</w>",
   "stems</w>"
  ],
  [
   "of",
   "f</w>",
   "off</w>"
  ],
  [
   "d",
   "ry</w>",
   "dry</w>"
  ],
  [
   "st",
   "ance</w>",
   "stance</w>"
  ],
  [
   "ch",
   "em",
   "chem"
  ],
  [
   "w",
   "ard</w>",
   "ward</w>"
  ],
  [
   "p",
   "ast",
   "past"
  ],
  [
   "oun",
   "g</w>",
   "oung</w>"
  ],
  [
   "o",
   "y",
   "oy"
  ],
  [
   "n",
   "es</w>",
   "nes</w>"
  ],
  [
   "f",
   "all</w>",
   "fall</w>"
  ],
  [
   "es",
   "p",
   "esp"
  ],
  [
   "p",
   "tion</w>",
   "ption</w>"
  ],
  [
   "l",
   "ay</w>",
   "lay</w>"
  ],
  [
   "h",
   "and</w>",
   "hand</w>"
  ],
  [
   "gr",
   "ass</w>",
   "grass</w>"
  ],
  [
   "fertiliz",
   "ers</w>",
   "fertilizers</w>"
  ],
  [
   "du",
   "e</w>",
   "due</w>"
  ],
  [
   "s",
   "ol",
   "sol"
  ],
  [
   "g",
   "ing</w>",
   "ging</w>"
  ],
  [
   "2",
   "6",
   "26"
  ],
  [
   "&",
   "</w>",
   "&</w>"
  ],
  [
   "par",
   "ts</w>",
   "parts</w>"
  ],
  [
   "l",
   "oo",
   "loo"
  ],
  [
   "k",
   "ee",
   "kee"
  ],
  [
   "iz",
   "e</w>",
   "ize</w>"
  ],
  [
   "su",
   "st",
   "sust"
  ],
  [
   "p",
   "opul",
   "popul"
  ],
  [
   "f",
   "re",
   "fre"
  ],
  [
   "e",
   "ase</w>",
   "ease</w>"
  ],
  [
   "win",
   "ter</w>",
   "winter</w>"
  ],
  [
   "st",
   "and</w>",
   "stand</w>"
  ],
  [
   "ou",
   "th</w>",
   "outh</w>"
  ],
  [
   "f",
   "ee",
   "fee"
  ],
  [
   "cl",
   "ay</w>",
   "clay</w>"
  ],
  [
   "2",
   "9",
   "29"
  ],
  [
   "man",
   "ure</w>",
   "manure</w>"
  ],
  [
   "Wh",
   "en</w>",
   "When</w>"
  ],
  [
   "I",
   "N",
   "IN"
  ],
  [
   "A",
   "r",
   "Ar"
  ],
  [
   "ev",
   "en</w>",
   "even</w>"
  ],
  [
   "A",
   "mer",
   "Amer"
  ],
  [
   "i",
   "se</w>",
   "ise</w>"
  ],
  [
   "consi",
   "der",
   "consider"
  ],
  [
   "Amer",
   "ic",
   "Americ"
  ],
  [
   "l",
   "ast</w>",
   "last</w>"
  ],
  [
   "increas",
   "ed</w>",
   "increased</w>"
  ],
  [
   "c",
   "lim",
   "clim"
  ],
  [
   "E",
   "3",
   "E3"
  ],
  [
   "u",
   "ri",
   "uri"
  ],
  [
   "there",
   "fore</w>",
   "therefore</w>"
  ],
  [
   "st",
   "ock</w>",
   "stock</w>"
  ],
  [
   "sh",
   "or",
   "shor"
  ],
  [
   "f",
   "am",
   "fam"
  ],
  [
   "en",
   "e",
   "ene"
  ],
  [
   "d",
   "uring</w>",
   "during</w>"
  ],
  [
   "can",
   "e</w>",
   "cane</w>"
  ],
  [
   "th",
   "ou</w>",
   "thou</w>"
  ],
  [
   "re",
   "duc",
   "reduc"
  ],
  [
   "en",
   "viron",
   "environ"
  ],
  [
   "c",
   "ame</w>",
   "came</w>"
  ],
  [
   "ab",
   "ili",
   "abili"
  ],
  [
   "M",
   "an",
   "Man"
  ],
  [
   "to",
   "ge",
   "toge"
  ],
  [
   "th",
   "ir",
   "thir"
  ],
  [
   "ou",
   "e</w>",
   "oue</w>"
  ],
  [
   "m",
   "ents</w>",
   "ments</w>"
  ],
  [
   "gener",
   "ally</w>",
   "generally</w>"
  ],
  [
   "d",
   "own</w>",
   "down</w>"
  ],
  [
   "u",
   "tion</w>",
   "ution</w>"
  ],
  [
   "toge",
   "ther</w>",
   "together</w>"
  ],
  [
   "stru",
   "c",
   "struc"
  ],
  [
   "s",
   "s</w>",
   "ss</w>"
  ],
  [
   "c",
   "ap",
   "cap"
  ],
  [
   "b",
   "or",
   "bor"
  ],
  [
   "mil",
   "k</w>",
   "milk</w>"
  ],
  [
   "gra",
   "in</w>",
   "grain</w>"
  ],
  [
   "fe",
   "w</w>",
   "few</w>"
  ],
  [
   "coun",
   "tri",
   "countri"
  ],
  [
   "v",
   "en",
   "ven"
  ],
  [
   "ti",
   "l</w>",
   "til</w>"
  ],
  [
   "o",
   "ple</w>",
   "ople</w>"
  ],
  [
   "e",
   "d",
   "ed"
  ],
  [
   "C",
   "</w>",
   "C</w>"
  ],
  [
   "5",
   "7</w>",
   "57</w>"
  ],
  [
   "2",
   "7",
   "27"
  ],
  [
   "n",
   "ati",
   "nati"
  ],
  [
   "h",
   "um",
   "hum"
  ],
  [
   "a",
   "ke</w>",
   "ake</w>"
  ],
  [
   "sust",
   "ain",
   "sustain"
  ],
  [
   "carb",
   "on</w>",
   "carbon</w>"
  ],
  [
   "a",
   "il",
   "ail"
  ],
  [
   "s",
   "ays</w>",
   "says</w>"
  ],
  [
   "d",
   "ou",
   "dou"
  ],
  [
   "nec",
   "ess",
   "necess"
  ],
  [
   "an",
   "e</w>",
   "ane</w>"
  ],
  [
   "with",
   "in</w>",
   "within</w>"
  ],
  [
   "wee",
   "ds</w>",
   "weeds</w>"
  ],
  [
   "w",
   "ea",
   "wea"
  ],
  [
   "us",
   "es</w>",
   "uses</w>"
  ],
  [
   "lar",
   "g",
   "larg"
  ],
  [
   "ic",
   "k",
   "ick"
  ],
  [
   "su",
   "c",
   "suc"
  ],
  [
   "s",
   "er</w>",
   "ser</w>"
  ],
  [
   "prac",
   "tic",
   "practic"
  ],
  [
   "ow",
   "ers</w>",
   "owers</w>"
  ],
  [
   "mar",
   "k",
   "mark"
  ],
  [
   "cont",
   "in",
   "contin"
  ],
  [
   "ro",
   "t",
   "rot"
  ],
  [
   "ri",
   "c",
   "ric"
  ],
  [
   "i",
   "i</w>",
   "ii</w>"
  ],
  [
   "}",
   "</w>",
   "}</w>"
  ],
  [
   "{",
   "</w>",
   "{</w>"
  ],
  [
   "ph",
   "ot",
   "phot"
  ],
  [
   "pe",
   "ople</w>",
   "people</w>"
  ],
  [
   "h",
   "owever</w>",
   "however</w>"
  ],
  [
   "b",
   "as",
   "bas"
  ],
  [
   "a",
   "way</w>",
   "away</w>"
  ],
  [
   "par",
   "ti",
   "parti"
  ],
  [
   "oun",
   "ds</w>",
   "ounds</w>"
  ],
  [
   "b",
   "ers</w>",
   "bers</w>"
  ],
  [
   "H",
   "ar",
   "Har"
  ],
  [
   "res",
   "ul",
   "resul"
  ],
  [
   "po",
   "or</w>",
   "poor</w>"
  ],
  [
   "pl",
   "y</w>",
   "ply</w>"
  ],
  [
   "eg",
   "et",
   "eget"
  ],
  [
   "d",
   "om",
   "dom"
  ],
  [
   "li",
   "fe</w>",
   "life</w>"
  ],
  [
   "ha",
   "th</w>",
   "hath</w>"
  ],
  [
   "ch",
   "ed</w>",
   "ched</w>"
  ],
  [
   "c",
   "y",
   "cy"
  ],
  [
   "c",
   "ou",
   "cou"
  ],
  [
   "B",
   "y</w>",
   "By</w>"
  ],
  [
   "A",
   "N",
   "AN"
  ],
  [
   "te",
   "enth</w>",
   "teenth</w>"
  ],
  [
   "g",
   "l",
   "gl"
  ],
  [
   "cl",
   "o",
   "clo"
  ],
  [
   "a",
   "ver",
   "aver"
  ],
  [
   "A",
   "l",
   "Al"
  ],
  [
   "st",
   "s</w>",
   "sts</w>"
  ],
  [
   "rea",
   "d</w>",
   "read</w>"
  ],
  [
   "pro",
   "b",
   "prob"
  ],
  [
   "m",
   "is",
   "mis"
  ],
  [
   "e",
   "very</w>",
   "every</w>"
  ],
  [
   "_",
   "ad",
   "_ad"
  ],
  [
   "3",
   "3</w>",
   "33</w>"
  ],
  [
   "re",
   "l",
   "rel"
  ],
  [
   "id",
   "d",
   "idd"
  ],
  [
   "fi",
   "elds</w>",
   "fields</w>"
  ],
  [
   "esp",
   "eci",
   "especi"
  ],
  [
   "w",
   "ays</w>",
   "ways</w>"
  ],
  [
   "nit",
   "ed</w>",
   "nited</w>"
  ],
  [
   "for",
   "m",
   "form"
  ],
  [
   "ash",
   "</w>",
   "ash</w>"
  ],
  [
   "ad",
   "v",
   "adv"
  ],
  [
   "2",
   "6</w>",
   "26</w>"
  ],
  [
   "wi",
   "se</w>",
   "wise</w>"
  ],
  [
   "s",
   "ing</w>",
   "sing</w>"
  ],
  [
   "roo",
   "ts</w>",
   "roots</w>"
  ],
  [
   "re",
   "as",
   "reas"
  ],
  [
   "por",
   "t</w>",
   "port</w>"
  ],
  [
   "plan",
   "ted</w>",
   "planted</w>"
  ],
  [
   "on",
   "ely</w>",
   "onely</w>"
  ],
  [
   "h",
   "uswi",
   "huswi"
  ],
  [
   "differ",
   "ent</w>",
   "different</w>"
  ],
  [
   "c",
   "ent",
   "cent"
  ],
  [
   "U",
   "nited</w>",
   "United</w>"
  ],
  [
   "L",
   "</w>",
   "L</w>"
  ],
  [
   "re",
   "st</w>",
   "rest</w>"
  ],
  [
   "proc",
   "ess</w>",
   "process</w>"
  ],
  [
   "in",
   "du",
   "indu"
  ],
  [
   "us",
   "ing</w>",
   "using</w>"
  ],
  [
   "seas",
   "on</w>",
   "season</w>"
  ],
  [
   "hal",
   "f</w>",
   "half</w>"
  ],
  [
   "ec",
   "tion</w>",
   "ection</w>"
  ],
  [
   "chan",
   "ge</w>",
   "change</w>"
  ],
  [
   "an",
   "ti",
   "anti"
  ],
  [
   "P",
   "</w>",
   "P</w>"
  ],
  [
   "C",
   "ha",
   "Cha"
  ],
  [
   "A",
   "t</w>",
   "At</w>"
  ],
  [
   "2",
   "8</w>",
   "28</w>"
  ],
  [
   "th",
   "or",
   "thor"
  ],
  [
   "so",
   "ils</w>",
   "soils</w>"
  ],
  [
   "i",
   "gh",
   "igh"
  ],
  [
   "foll",
   "owing</w>",
   "following</w>"
  ],
  [
   "ec",
   "ts</w>",
   "ects</w>"
  ],
  [
   "ch",
   "ing</w>",
   "ching</w>"
  ],
  [
   "abili",
   "ty</w>",
   "ability</w>"
  ],
  [
   "Th",
   "ey</w>",
   "They</w>"
  ],
  [
   "v",
   "eget",
   "veget"
  ],
  [
   "re",
   "g",
   "reg"
  ],
  [
   "j",
   "</w>",
   "j</w>"
  ],
  [
   "f",
   "our</w>",
   "four</w>"
  ],
  [
   "ec",
   "ted</w>",
   "ected</w>"
  ],
  [
   "cont",
   "ro",
   "contro"
  ],
  [
   "ab",
   "ly</w>",
   "ably</w>"
  ],
  [
   "w",
   "ri",
   "wri"
  ],
  [
   "w",
   "ast",
   "wast"
  ],
  [
   "th",
   "s</w>",
   "ths</w>"
  ],
  [
   "th",
   "ri",
   "thri"
  ],
  [
   "s",
   "our",
   "sour"
  ],
  [
   "gar",
   "den</w>",
   "garden</w>"
  ],
  [
   "f",
   "o",
   "fo"
  ],
  [
   "F",
   "i",
   "Fi"
  ],
  [
   "st",
   "or",
   "stor"
  ],
  [
   "pri",
   "ces</w>",
   "prices</w>"
  ],
  [
   "ma",
   "king</w>",
   "making</w>"
  ],
  [
   "m",
   "ent",
   "ment"
  ],
  [
   "lab",
   "our</w>",
   "labour</w>"
  ],
  [
   "import",
   "ant</w>",
   "important</w>"
  ],
  [
   "pl",
   "es</w>",
   "ples</w>"
  ],
  [
   "mat",
   "ter</w>",
   "matter</w>"
  ],
  [
   "i",
   "ly</w>",
   "ily</w>"
  ],
  [
   "exam",
   "ple</w>",
   "example</w>"
  ],
  [
   "st",
   "r",
   "str"
  ],
  [
   "b",
   "ran",
   "bran"
  ],
  [
   "B",
   "ut</w>",
   "But</w>"
  ],
  [
   "si",
   "g",
   "sig"
  ],
  [
   "lor",
   "d</w>",
   "lord</w>"
  ],
  [
   "TH",
   "E</w>",
   "THE</w>"
  ],
  [
   "le",
   "av",
   "leav"
  ],
  [
   "f",
   "ace</w>",
   "face</w>"
  ],
  [
   "R",
   "e",
   "Re"
  ],
  [
   "C",
   "or",
   "Cor"
  ],
  [
   "3",
   "4",
   "34"
  ],
  [
   "un",
   "til</w>",
   "until</w>"
  ],
  [
   "l",
   "ow</w>",
   "low</w>"
  ],
  [
   "ac",
   "cording</w>",
   "according</w>"
  ],
  [
   "Agricultur",
   "e</w>",
   "Agriculture</w>"
  ],
  [
   "ti",
   "ll",
   "till"
  ],
  [
   "ser",
   "u",
   "seru"
  ],
  [
   "p",
   "t</w>",
   "pt</w>"
  ],
  [
   "p",
   "l</w>",
   "pl</w>"
  ],
  [
   "ici",
   "ent</w>",
   "icient</w>"
  ],
  [
   "es",
   "_</w>",
   "es_</w>"
  ],
  [
   "e",
   "y",
   "ey"
  ],
  [
   "d",
   "one</w>",
   "done</w>"
  ],
  [
   "bu",
   "sh",
   "bush"
  ],
  [
   "bre",
   "e",
   "bree"
  ],
  [
   "a",
   "ff",
   "aff"
  ],
  [
   "se",
   "ase</w>",
   "sease</w>"
  ],
  [
   "mat",
   "eri",
   "materi"
  ],
  [
   "le",
   "c",
   "lec"
  ],
  [
   "especi",
   "ally</w>",
   "especially</w>"
  ],
  [
   "spr",
   "ing</w>",
   "spring</w>"
  ],
  [
   "se",
   "ver",
   "sever"
  ],
  [
   "f",
   "un",
   "fun"
  ],
  [
   "O",
   "r",
   "Or"
  ],
  [
   "si",
   "ble</w>",
   "sible</w>"
  ],
  [
   "en",
   "clos",
   "enclos"
  ],
  [
   "di",
   "tions</w>",
   "ditions</w>"
  ],
  [
   "d",
   "el",
   "del"
  ],
  [
   "al",
   "i",
   "ali"
  ],
  [
   "ac",
   "c",
   "acc"
  ],
  [
   "H",
   "</w>",
   "H</w>"
  ],
  [
   "C",
   "O",
   "CO"
  ],
  [
   "p",
   "as",
   "pas"
  ],
  [
   "en",
   "s</w>",
   "ens</w>"
  ],
  [
   "ec",
   "on",
   "econ"
  ],
  [
   "e",
   "qu",
   "equ"
  ],
  [
   "T",
   "E",
   "TE"
  ],
  [
   "S",
   "h",
   "Sh"
  ],
  [
   "Pl",
   "ough</w>",
   "Plough</w>"
  ],
  [
   "3",
   "5</w>",
   "35</w>"
  ],
  [
   "re",
   "sp",
   "resp"
  ],
  [
   "pro",
   "fit</w>",
   "profit</w>"
  ],
  [
   "hor",
   "se</w>",
   "horse</w>"
  ],
  [
   "di",
   "sease</w>",
   "disease</w>"
  ],
  [
   "al",
   "ity</w>",
   "ality</w>"
  ],
  [
   "ain",
   "st</w>",
   "ainst</w>"
  ],
  [
   "W",
   "i",
   "Wi"
  ],
  [
   "S",
   "E",
   "SE"
  ],
  [
   "ter",
   "ia</w>",
   "teria</w>"
  ],
  [
   "n",
   "or</w>",
   "nor</w>"
  ],
  [
   "er",
   "ed</w>",
   "ered</w>"
  ],
  [
   "ec",
   "t",
   "ect"
  ],
  [
   "de",
   "pen",
   "depen"
  ],
  [
   "ab",
   "o",
   "abo"
  ],
  [
   "B",
   "ri",
   "Bri"
  ],
  [
   "é",
   "e",
   "ée"
  ],
  [
   "pl",
   "ough</w>",
   "plough</w>"
  ],
  [
   "fi",
   "x",
   "fix"
  ],
  [
   "en",
   "er",
   "ener"
  ],
  [
   "d",
   "em",
   "dem"
  ],
  [
   "c",
   "our",
   "cour"
  ],
  [
   "an",
   "n",
   "ann"
  ],
  [
   "al",
   "th</w>",
   "alth</w>"
  ],
  [
   "u",
   "c",
   "uc"
  ],
  [
   "n",
   "or",
   "nor"
  ],
  [
   "man",
   "ag",
   "manag"
  ],
  [
   "ma",
   "ize</w>",
   "maize</w>"
  ],
  [
   "e",
   "ties</w>",
   "eties</w>"
  ],
  [
   "countri",
   "es</w>",
   "countries</w>"
  ],
  [
   "a",
   "w",
   "aw"
  ],
  [
   "L",
   "i",
   "Li"
  ],
  [
   "v",
   "ol",
   "vol"
  ],
  [
   "u",
   "pon</w>",
   "upon</w>"
  ],
  [
   "se",
   "qu",
   "sequ"
  ],
  [
   "lo",
   "b",
   "lob"
  ],
  [
   "em",
   "ents</w>",
   "ements</w>"
  ],
  [
   "wh",
   "ole</w>",
   "whole</w>"
  ],
  [
   "val",
   "ue</w>",
   "value</w>"
  ],
  [
   "p",
   "p</w>",
   "pp</w>"
  ],
  [
   "ou",
   "t",
   "out"
  ],
  [
   "inclu",
   "de</w>",
   "include</w>"
  ],
  [
   "c",
   "ost</w>",
   "cost</w>"
  ],
  [
   "W",
   "or",
   "Wor"
  ],
  [
   "S",
   "o",
   "So"
  ],
  [
   "si",
   "ve</w>",
   "sive</w>"
  ],
  [
   "gre",
   "at",
   "great"
  ],
  [
   "ver",
   "s",
   "vers"
  ],
  [
   "se",
   "t",
   "set"
  ],
  [
   "m",
   "as</w>",
   "mas</w>"
  ],
  [
   "h",
   "op",
   "hop"
  ],
  [
   "ag",
   "ainst</w>",
   "against</w>"
  ],
  [
   "yi",
   "eld</w>",
   "yield</w>"
  ],
  [
   "suc",
   "c",
   "succ"
  ],
  [
   "n",
   "esse</w>",
   "nesse</w>"
  ],
  [
   "man",
   "ner</w>",
   "manner</w>"
  ],
  [
   "in",
   "ed</w>",
   "ined</w>"
  ],
  [
   "O",
   "N</w>",
   "ON</w>"
  ],
  [
   "se",
   "con",
   "secon"
  ],
  [
   "r",
   "en",
   "ren"
  ],
  [
   "oo",
   "k</w>",
   "ook</w>"
  ],
  [
   "mil",
   "lion</w>",
   "million</w>"
  ],
  [
   "f",
   "our",
   "four"
  ],
  [
   "eu",
   "ery</w>",
   "euery</w>"
  ],
  [
   "cultiv",
   "ation</w>",
   "cultivation</w>"
  ],
  [
   "at",
   "o",
   "ato"
  ],
  [
   "2",
   "7</w>",
   "27</w>"
  ],
  [
   "¶",
   "</w>",
   "¶</w>"
  ],
  [
   "y",
   "_</w>",
   "y_</w>"
  ],
  [
   "n",
   "ext</w>",
   "next</w>"
  ],
  [
   "ha",
   "y</w>",
   "hay</w>"
  ],
  [
   "amoun",
   "t</w>",
   "amount</w>"
  ],
  [
   "wh",
   "ere",
   "where"
  ],
  [
   "sug",
   "ar</w>",
   "sugar</w>"
  ],
  [
   "pro",
   "v",
   "prov"
  ],
  [
   "os",
   "yn",
   "osyn"
  ],
  [
   "com",
   "pl",
   "compl"
  ],
  [
   "anim",
   "als</w>",
   "animals</w>"
  ],
  [
   "a",
   "ir</w>",
   "air</w>"
  ],
  [
   "6",
   "0</w>",
   "60</w>"
  ],
  [
   "u",
   "es</w>",
   "ues</w>"
  ],
  [
   "u",
   "al</w>",
   "ual</w>"
  ],
  [
   "o",
   "thers</w>",
   "others</w>"
  ],
  [
   "hor",
   "ses</w>",
   "horses</w>"
  ],
  [
   "harv",
   "est</w>",
   "harvest</w>"
  ],
  [
   "et",
   "c</w>",
   "etc</w>"
  ],
  [
   "di",
   "st",
   "dist"
  ],
  [
   "E",
   "x",
   "Ex"
  ],
  [
   "pre",
   "v",
   "prev"
  ],
  [
   "ou",
   "s",
   "ous"
  ],
  [
   "sy",
   "stems</w>",
   "systems</w>"
  ],
  [
   "ri",
   "ch</w>",
   "rich</w>"
  ],
  [
   "p",
   "ing</w>",
   "ping</w>"
  ],
  [
   "St",
   "ates</w>",
   "States</w>"
  ],
  [
   "S",
   "N</w>",
   "SN</w>"
  ],
  [
   "3",
   "6</w>",
   "36</w>"
  ],
  [
   "w",
   "ages</w>",
   "wages</w>"
  ],
  [
   "ti",
   "on",
   "tion"
  ],
  [
   "o",
   "ds</w>",
   "ods</w>"
  ],
  [
   "h",
   "un",
   "hun"
  ],
  [
   "s",
   "w",
   "sw"
  ],
  [
   "past",
   "ure</w>",
   "pasture</w>"
  ],
  [
   "i",
   "le</w>",
   "ile</w>"
  ],
  [
   "h",
   "ome</w>",
   "home</w>"
  ],
  [
   "c",
   "ent</w>",
   "cent</w>"
  ],
  [
   "aver",
   "age</w>",
   "average</w>"
  ],
  [
   "an",
   "c",
   "anc"
  ],
  [
   "H",
   "e</w>",
   "He</w>"
  ],
  [
   "woo",
   "l</w>",
   "wool</w>"
  ],
  [
   "sel",
   "f</w>",
   "self</w>"
  ],
  [
   "pestic",
   "ides</w>",
   "pesticides</w>"
  ],
  [
   "ow",
   "n",
   "own"
  ],
  [
   "on",
   "es</w>",
   "ones</w>"
  ],
  [
   "id",
   "ed</w>",
   "ided</w>"
  ],
  [
   "e",
   "f</w>",
   "ef</w>"
  ],
  [
   "as",
   "si",
   "assi"
  ],
  [
   "I",
   "II</w>",
   "III</w>"
  ],
  [
   "st",
   "ing</w>",
   "sting</w>"
  ],
  [
   "m",
   "em",
   "mem"
  ],
  [
   "i",
   "sh</w>",
   "ish</w>"
  ],
  [
   "g",
   "u",
   "gu"
  ],
  [
   "fi",
   "ed</w>",
   "fied</w>"
  ],
  [
   "bi",
   "o",
   "bio"
  ],
  [
   "C",
   "H",
   "CH"
  ],
  [
   "r",
   "ent</w>",
   "rent</w>"
  ],
  [
   "b",
   "ene",
   "bene"
  ],
  [
   "a",
   "ine</w>",
   "aine</w>"
  ],
  [
   "a",
   "in</w>",
   "ain</w>"
  ],
  [
   "po",
   "in",
   "poin"
  ],
  [
   "ph",
   "osph",
   "phosph"
  ],
  [
   "or",
   "der</w>",
   "order</w>"
  ],
  [
   "le",
   "g",
   "leg"
  ],
  [
   "husband",
   "rie</w>",
   "husbandrie</w>"
  ],
  [
   "farm",
   "s</w>",
   "farms</w>"
  ],
  [
   "d",
   "ai",
   "dai"
  ],
  [
   "con",
   "sum",
   "consum"
  ],
  [
   "ch",
   "e",
   "che"
  ],
  [
   "ar",
   "ds</w>",
   "ards</w>"
  ],
  [
   "T",
   "I",
   "TI"
  ],
  [
   "8",
   "0</w>",
   "80</w>"
  ],
  [
   "tem",
   "per",
   "temper"
  ],
  [
   "ta",
   "ken</w>",
   "taken</w>"
  ],
  [
   "st",
   "ron",
   "stron"
  ],
  [
   "st",
   "ro",
   "stro"
  ],
  [
   "ot",
   "es</w>",
   "otes</w>"
  ],
  [
   "o",
   "p</w>",
   "op</w>"
  ],
  [
   "ir",
   "ed</w>",
   "ired</w>"
  ],
  [
   "inclu",
   "ding</w>",
   "including</w>"
  ],
  [
   "g",
   "er",
   "ger"
  ],
  [
   "di",
   "seas",
   "diseas"
  ],
  [
   "cultiv",
   "ated</w>",
   "cultivated</w>"
  ],
  [
   "av",
   "ail",
   "avail"
  ],
  [
   "at",
   "t",
   "att"
  ],
  [
   "ac",
   "coun",
   "accoun"
  ],
  [
   "ab",
   "les</w>",
   "ables</w>"
  ],
  [
   "G",
   "re",
   "Gre"
  ],
  [
   "7",
   "0</w>",
   "70</w>"
  ],
  [
   "vari",
   "eties</w>",
   "varieties</w>"
  ],
  [
   "read",
   "y</w>",
   "ready</w>"
  ],
  [
   "re",
   "gi",
   "regi"
  ],
  [
   "r",
   "ate</w>",
   "rate</w>"
  ],
  [
   "plan",
   "ting</w>",
   "planting</w>"
  ],
  [
   "p",
   "ic",
   "pic"
  ],
  [
   "o",
   "m</w>",
   "om</w>"
  ],
  [
   "in",
   "ten",
   "inten"
  ],
  [
   "ful",
   "ly</w>",
   "fully</w>"
  ],
  [
   "fin",
   "d</w>",
   "find</w>"
  ],
  [
   "as",
   "ses</w>",
   "asses</w>"
  ],
  [
   "ut",
   "e</w>",
   "ute</w>"
  ],
  [
   "us",
   "ually</w>",
   "usually</w>"
  ],
  [
   "ur",
   "</w>",
   "ur</w>"
  ],
  [
   "un",
   "der",
   "under"
  ],
  [
   "s",
   "ince</w>",
   "since</w>"
  ],
  [
   "n",
   "am",
   "nam"
  ],
  [
   "li",
   "ed</w>",
   "lied</w>"
  ],
  [
   "l",
   "oc",
   "loc"
  ],
  [
   "fl",
   "owers</w>",
   "flowers</w>"
  ],
  [
   "en",
   "d",
   "end"
  ],
  [
   "econ",
   "om",
   "econom"
  ],
  [
   "des",
   "cri",
   "descri"
  ],
  [
   "d",
   "ers</w>",
   "ders</w>"
  ],
  [
   "co",
   "ver",
   "cover"
  ],
  [
   "G",
   "ood</w>",
   "Good</w>"
  ],
  [
   "5",
   "6</w>",
   "56</w>"
  ],
  [
   "3",
   "9</w>",
   "39</w>"
  ],
  [
   "sever",
   "al</w>",
   "several</w>"
  ],
  [
   "s",
   "ay</w>",
   "say</w>"
  ],
  [
   "or",
   "ig",
   "orig"
  ],
  [
   "mo",
   "ist",
   "moist"
  ],
  [
   "d",
   "re",
   "dre"
  ],
  [
   "ar",
   "ly</w>",
   "arly</w>"
  ],
  [
   "A",
   "R",
   "AR"
  ],
  [
   "ti",
   "onal</w>",
   "tional</w>"
  ],
  [
   "prac",
   "ti",
   "practi"
  ],
  [
   "organ",
   "is",
   "organis"
  ],
  [
   "clim",
   "ate</w>",
   "climate</w>"
  ],
  [
   "beg",
   "in",
   "begin"
  ],
  [
   "m",
   "ic",
   "mic"
  ],
  [
   "in",
   "a</w>",
   "ina</w>"
  ],
  [
   "g",
   "y</w>",
   "gy</w>"
  ],
  [
   "e",
   "ate</w>",
   "eate</w>"
  ],
  [
   "can",
   "not</w>",
   "cannot</w>"
  ],
  [
   "ar",
   "t</w>",
   "art</w>"
  ],
  [
   "sustain",
   "able</w>",
   "sustainable</w>"
  ],
  [
   "some",
   "times</w>",
   "sometimes</w>"
  ],
  [
   "s",
   "ing",
   "sing"
  ],
  [
   "gar",
   "cane</w>",
   "garcane</w>"
  ],
  [
   "fertiliz",
   "er</w>",
   "fertilizer</w>"
  ],
  [
   "eng",
   "th</w>",
   "ength</w>"
  ],
  [
   "anim",
   "al</w>",
   "animal</w>"
  ],
  [
   "an",
   "t",
   "ant"
  ],
  [
   "Y",
   "</w>",
   "Y</w>"
  ],
  [
   "th",
   "in",
   "thin"
  ],
  [
   "o",
   "ff",
   "off"
  ],
  [
   "n",
   "ame</w>",
   "name</w>"
  ],
  [
   "hea",
   "d</w>",
   "head</w>"
  ],
  [
   "d",
   "ro",
   "dro"
  ],
  [
   "2",
   "9</w>",
   "29</w>"
  ],
  [
   "tiv",
   "ity</w>",
   "tivity</w>"
  ],
  [
   "te",
   "ch",
   "tech"
  ],
  [
   "qu",
   "anti",
   "quanti"
  ],
  [
   "produc",
   "ed</w>",
   "produced</w>"
  ],
  [
   "ou",
   "l",
   "oul"
  ],
  [
   "olog",
   "ical</w>",
   "ological</w>"
  ],
  [
   "nutri",
   "ents</w>",
   "nutrients</w>"
  ],
  [
   "kn",
   "ow</w>",
   "know</w>"
  ],
  [
   "f",
   "it",
   "fit"
  ],
  [
   "d",
   "in",
   "din"
  ],
  [
   "b",
   "ul",
   "bul"
  ],
  [
   "ac",
   "ke</w>",
   "acke</w>"
  ],
  [
   "3",
   "1</w>",
   "31</w>"
  ],
  [
   "th",
   "re",
   "thre"
  ],
  [
   "ol",
   "k</w>",
   "olk</w>"
  ],
  [
   "f",
   "ra",
   "fra"
  ],
  [
   "do",
   "es</w>",
   "does</w>"
  ],
  [
   "car",
   "e",
   "care"
  ],
  [
   "app",
   "ear",
   "appear"
  ],
  [
   "O",
   "F</w>",
   "OF</w>"
  ],
  [
   "H",
   "ist",
   "Hist"
  ],
  [
   "5",
   "5</w>",
   "55</w>"
  ],
  [
   "we",
   "ed</w>",
   "weed</w>"
  ],
  [
   "t",
   "on",
   "ton"
  ],
  [
   "t",
   "es</w>",
   "tes</w>"
  ],
  [
   "shor",
   "t</w>",
   "short</w>"
  ],
  [
   "phot",
   "osyn",
   "photosyn"
  ],
  [
   "me",
   "di",
   "medi"
  ],
  [
   "l",
   "on",
   "lon"
  ],
  [
   "l",
   "in",
   "lin"
  ],
  [
   "e",
   "ts</w>",
   "ets</w>"
  ],
  [
   "do",
   "o</w>",
   "doo</w>"
  ],
  [
   "Ac",
   "t</w>",
   "Act</w>"
  ],
  [
   "3",
   "2</w>",
   "32</w>"
  ],
  [
   "vn",
   "to</w>",
   "vnto</w>"
  ],
  [
   "produc",
   "ts</w>",
   "products</w>"
  ],
  [
   "l",
   "at",
   "lat"
  ],
  [
   "d",
   "ays</w>",
   "days</w>"
  ],
  [
   "con",
   "ditions</w>",
   "conditions</w>"
  ],
  [
   "b",
   "es</w>",
   "bes</w>"
  ],
  [
   "_ad",
   "j</w>",
   "_adj</w>"
  ],
  [
   "wor",
   "th</w>",
   "worth</w>"
  ],
  [
   "nat",
   "ural</w>",
   "natural</w>"
  ],
  [
   "l",
   "ine</w>",
   "line</w>"
  ],
  [
   "l",
   "b</w>",
   "lb</w>"
  ],
  [
   "harv",
   "est",
   "harvest"
  ],
  [
   "fl",
   "ower</w>",
   "flower</w>"
  ],
  [
   "com",
   "es</w>",
   "comes</w>"
  ],
  [
   "c",
   "ut",
   "cut"
  ],
  [
   "Q",
   "u",
   "Qu"
  ],
  [
   "E",
   "u",
   "Eu"
  ],
  [
   "5",
   "3</w>",
   "53</w>"
  ],
  [
   "3",
   "7</w>",
   "37</w>"
  ],
  [
   "3",
   "4</w>",
   "34</w>"
  ],
  [
   "y",
   "oung</w>",
   "young</w>"
  ],
  [
   "me",
   "an",
   "mean"
  ],
  [
   "k",
   "eep</w>",
   "keep</w>"
  ],
  [
   "i",
   "p",
   "ip"
  ],
  [
   "f",
   "ine</w>",
   "fine</w>"
  ],
  [
   "a",
   "_</w>",
   "a_</w>"
  ],
  [
   "C",
   "on",
   "Con"
  ],
  [
   "secon",
   "d</w>",
   "second</w>"
  ],
  [
   "re",
   "mo",
   "remo"
  ],
  [
   "practic",
   "es</w>",
   "practices</w>"
  ],
  [
   "ma",
   "tion</w>",
   "mation</w>"
  ],
  [
   "k",
   "ept</w>",
   "kept</w>"
  ],
  [
   "dom",
   "estic",
   "domestic"
  ],
  [
   "bu",
   "il",
   "buil"
  ],
  [
   "Th",
   "at</w>",
   "That</w>"
  ],
  [
   "Ch",
   "ri",
   "Chri"
  ],
  [
   "the",
   "e</w>",
   "thee</w>"
  ],
  [
   "s",
   "and</w>",
   "sand</w>"
  ],
  [
   "necess",
   "ary</w>",
   "necessary</w>"
  ],
  [
   "h",
   "on",
   "hon"
  ],
  [
   "f",
   "ree</w>",
   "free</w>"
  ],
  [
   "er",
   "ing</w>",
   "ering</w>"
  ],
  [
   "ato",
   "es</w>",
   "atoes</w>"
  ],
  [
   "am",
   "ong</w>",
   "among</w>"
  ],
  [
   "R",
   "O",
   "RO"
  ],
  [
   "B",
   "e",
   "Be"
  ],
  [
   "s",
   "ow</w>",
   "sow</w>"
  ],
  [
   "ch",
   "o",
   "cho"
  ],
  [
   "be",
   "come</w>",
   "become</w>"
  ],
  [
   "T",
   "us",
   "Tus"
  ],
  [
   "tain",
   "ed</w>",
   "tained</w>"
  ],
  [
   "so",
   "ci",
   "soci"
  ],
  [
   "ser",
   "ue</w>",
   "serue</w>"
  ],
  [
   "ra",
   "in",
   "rain"
  ],
  [
   "peri",
   "od</w>",
   "period</w>"
  ],
  [
   "p",
   "ests</w>",
   "pests</w>"
  ],
  [
   "no",
   "thing</w>",
   "nothing</w>"
  ],
  [
   "me",
   "as",
   "meas"
  ],
  [
   "en",
   "ces</w>",
   "ences</w>"
  ],
  [
   "e",
   "f",
   "ef"
  ],
  [
   "di",
   "rec",
   "direc"
  ],
  [
   "u",
   "er</w>",
   "uer</w>"
  ],
  [
   "parti",
   "cul",
   "particul"
  ],
  [
   "n",
   "ess</w>",
   "ness</w>"
  ],
  [
   "me",
   "at</w>",
   "meat</w>"
  ],
  [
   "insec",
   "ts</w>",
   "insects</w>"
  ],
  [
   "en",
   "ough</w>",
   "enough</w>"
  ],
  [
   "ar",
   "ound</w>",
   "around</w>"
  ],
  [
   "st",
   "ea",
   "stea"
  ],
  [
   "st",
   "at",
   "stat"
  ],
  [
   "pl",
   "eas",
   "pleas"
  ],
  [
   "op",
   "en</w>",
   "open</w>"
  ],
  [
   "gre",
   "ater</w>",
   "greater</w>"
  ],
  [
   "g",
   "lob",
   "glob"
  ],
  [
   "ell",
   "s</w>",
   "ells</w>"
  ],
  [
   "di",
   "es</w>",
   "dies</w>"
  ],
  [
   "brea",
   "d</w>",
   "bread</w>"
  ],
  [
   "Wh",
   "at</w>",
   "What</w>"
  ],
  [
   "G",
   "od</w>",
   "God</w>"
  ],
  [
   "C",
   "ot",
   "Cot"
  ],
  [
   "A",
   "u",
   "Au"
  ],
  [
   "0",
   "s</w>",
   "0s</w>"
  ],
  [
   "tro",
   "duc",
   "troduc"
  ],
  [
   "ther",
   "n</w>",
   "thern</w>"
  ],
  [
   "sur",
   "face</w>",
   "surface</w>"
  ],
  [
   "stra",
   "w</w>",
   "straw</w>"
  ],
  [
   "ro",
   "ot</w>",
   "root</w>"
  ],
  [
   "pro",
   "per",
   "proper"
  ],
  [
   "pl",
   "ough",
   "plough"
  ],
  [
   "olog",
   "y</w>",
   "ology</w>"
  ],
  [
   "moist",
   "ure</w>",
   "moisture</w>"
  ],
  [
   "m",
   "ul",
   "mul"
  ],
  [
   "leav",
   "es</w>",
   "leaves</w>"
  ],
  [
   "kin",
   "d</w>",
   "kind</w>"
  ],
  [
   "h",
   "ere</w>",
   "here</w>"
  ],
  [
   "for",
   "th</w>",
   "forth</w>"
  ],
  [
   "ent",
   "y</w>",
   "enty</w>"
  ],
  [
   "F",
   "ar",
   "Far"
  ],
  [
   "3",
   "8</w>",
   "38</w>"
  ],
  [
   "th",
   "es",
   "thes"
  ],
  [
   "reg",
   "ul",
   "regul"
  ],
  [
   "it",
   "ed</w>",
   "ited</w>"
  ],
  [
   "ei",
   "gh",
   "eigh"
  ],
  [
   "de",
   "f",
   "def"
  ],
  [
   "IN",
   "G</w>",
   "ING</w>"
  ],
  [
   "sp",
   "read</w>",
   "spread</w>"
  ],
  [
   "so",
   "on</w>",
   "soon</w>"
  ],
  [
   "on",
   "ce</w>",
   "once</w>"
  ],
  [
   "o",
   "ver",
   "over"
  ],
  [
   "o",
   "h",
   "oh"
  ],
  [
   "i",
   "st</w>",
   "ist</w>"
  ],
  [
   "b",
   "s</w>",
   "bs</w>"
  ],
  [
   "b",
   "in",
   "bin"
  ],
  [
   "Tus",
   "ser</w>",
   "Tusser</w>"
  ],
  [
   "D",
   "i",
   "Di"
  ],
  [
   "row",
   "s</w>",
   "rows</w>"
  ],
  [
   "pro",
   "t",
   "prot"
  ],
  [
   "p",
   "ul",
   "pul"
  ],
  [
   "hum",
   "an</w>",
   "human</w>"
  ],
  [
   "c",
   "al",
   "cal"
  ],
  [
   "are",
   "as</w>",
   "areas</w>"
  ],
  [
   "all",
   "ow</w>",
   "allow</w>"
  ],
  [
   "9",
   "0</w>",
   "90</w>"
  ],
  [
   "y",
   "s</w>",
   "ys</w>"
  ],
  [
   "ment",
   "al</w>",
   "mental</w>"
  ],
  [
   "l",
   "s</w>",
   "ls</w>"
  ],
  [
   "gra",
   "f",
   "graf"
  ],
  [
   "ener",
   "gy</w>",
   "energy</w>"
  ],
  [
   "ch",
   "ard</w>",
   "chard</w>"
  ],
  [
   "as",
   "es</w>",
   "ases</w>"
  ],
  [
   "S",
   "oc",
   "Soc"
  ],
  [
   "O",
   "ne</w>",
   "One</w>"
  ],
  [
   "7",
   "3</w>",
   "73</w>"
  ],
  [
   "v",
   "se</w>",
   "vse</w>"
  ],
  [
   "st",
   "al",
   "stal"
  ],
  [
   "pos",
   "sible</w>",
   "possible</w>"
  ],
  [
   "organis",
   "ms</w>",
   "organisms</w>"
  ],
  [
   "m",
   "ol",
   "mol"
  ],
  [
   "ga",
   "ther",
   "gather"
  ],
  [
   "for",
   "d</w>",
   "ford</w>"
  ],
  [
   "fe",
   "ed</w>",
   "feed</w>"
  ],
  [
   "ei",
   "ght</w>",
   "eight</w>"
  ],
  [
   "contro",
   "l</w>",
   "control</w>"
  ],
  [
   "7",
   "5</w>",
   "75</w>"
  ],
  [
   "4",
   "2</w>",
   "42</w>"
  ],
  [
   "u",
   "p",
   "up"
  ],
  [
   "sig",
   "ni",
   "signi"
  ],
  [
   "s",
   "en",
   "sen"
  ],
  [
   "mo",
   "di",
   "modi"
  ],
  [
   "man",
   "s</w>",
   "mans</w>"
  ],
  [
   "es",
   "tim",
   "estim"
  ],
  [
   "de",
   "th</w>",
   "deth</w>"
  ],
  [
   "c",
   "ow</w>",
   "cow</w>"
  ],
  [
   "ai",
   "e</w>",
   "aie</w>"
  ],
  [
   "5",
   "9</w>",
   "59</w>"
  ],
  [
   "wi",
   "de</w>",
   "wide</w>"
  ],
  [
   "wh",
   "e",
   "whe"
  ],
  [
   "vers",
   "ity</w>",
   "versity</w>"
  ],
  [
   "u",
   "ing</w>",
   "uing</w>"
  ],
  [
   "till",
   "age</w>",
   "tillage</w>"
  ],
  [
   "st",
   "ate</w>",
   "state</w>"
  ],
  [
   "ma",
   "in</w>",
   "main</w>"
  ],
  [
   "k",
   "er</w>",
   "ker</w>"
  ],
  [
   "f",
   "at</w>",
   "fat</w>"
  ],
  [
   "diseas",
   "es</w>",
   "diseases</w>"
  ],
  [
   "da",
   "ma",
   "dama"
  ],
  [
   "c",
   "ur",
   "cur"
  ],
  [
   "bac",
   "teria</w>",
   "bacteria</w>"
  ],
  [
   "H",
   "owever</w>",
   "However</w>"
  ],
  [
   "1",
   "00</w>",
   "100</w>"
  ],
  [
   "st",
   "one</w>",
   "stone</w>"
  ],
  [
   "p",
   "ose</w>",
   "pose</w>"
  ],
  [
   "p",
   "est</w>",
   "pest</w>"
  ],
  [
   "ma",
   "j",
   "maj"
  ],
  [
   "li",
   "ve</w>",
   "live</w>"
  ],
  [
   "li",
   "k",
   "lik"
  ],
  [
   "le",
   "ft</w>",
   "left</w>"
  ],
  [
   "impro",
   "v",
   "improv"
  ],
  [
   "fall",
   "ow</w>",
   "fallow</w>"
  ],
  [
   "b",
   "ir",
   "bir"
  ],
  [
   "as",
   "se</w>",
   "asse</w>"
  ],
  [
   "abo",
   "ve</w>",
   "above</w>"
  ],
  [
   "5",
   "1</w>",
   "51</w>"
  ],
  [
   "|",
   "</w>",
   "|</w>"
  ],
  [
   "yi",
   "elds</w>",
   "yields</w>"
  ],
  [
   "st",
   "ry</w>",
   "stry</w>"
  ],
  [
   "p",
   "ac",
   "pac"
  ],
  [
   "ne",
   "ed</w>",
   "need</w>"
  ],
  [
   "mo",
   "der",
   "moder"
  ],
  [
   "labour",
   "er</w>",
   "labourer</w>"
  ],
  [
   "develop",
   "ed</w>",
   "developed</w>"
  ],
  [
   "de",
   "stro",
   "destro"
  ],
  [
   "br",
   "ing</w>",
   "bring</w>"
  ],
  [
   "are",
   "a</w>",
   "area</w>"
  ],
  [
   "Af",
   "ter</w>",
   "After</w>"
  ],
  [
   "6",
   "d</w>",
   "6d</w>"
  ],
  [
   "v",
   "est",
   "vest"
  ],
  [
   "st",
   "ed</w>",
   "sted</w>"
  ],
  [
   "me",
   "ans</w>",
   "means</w>"
  ],
  [
   "li",
   "c</w>",
   "lic</w>"
  ],
  [
   "is",
   "ed</w>",
   "ised</w>"
  ],
  [
   "gre",
   "en</w>",
   "green</w>"
  ],
  [
   "gar",
   "den",
   "garden"
  ],
  [
   "7",
   "8</w>",
   "78</w>"
  ],
  [
   "w",
   "at",
   "wat"
  ],
  [
   "vn",
   "der",
   "vnder"
  ],
  [
   "tr",
   "ue</w>",
   "true</w>"
  ],
  [
   "thir",
   "d</w>",
   "third</w>"
  ],
  [
   "s",
   "ure</w>",
   "sure</w>"
  ],
  [
   "manag",
   "ement</w>",
   "management</w>"
  ],
  [
   "gi",
   "ven</w>",
   "given</w>"
  ],
  [
   "f",
   "ri",
   "fri"
  ],
  [
   "d",
   "ly</w>",
   "dly</w>"
  ],
  [
   "avail",
   "able</w>",
   "available</w>"
  ],
  [
   "Th",
   "en</w>",
   "Then</w>"
  ],
  [
   "Bar",
   "ley</w>",
   "Barley</w>"
  ],
  [
   "wast",
   "e</w>",
   "waste</w>"
  ],
  [
   "t",
   "able</w>",
   "table</w>"
  ],
  [
   "suff",
   "icient</w>",
   "sufficient</w>"
  ],
  [
   "sh",
   "ing</w>",
   "shing</w>"
  ],
  [
   "quar",
   "ter</w>",
   "quarter</w>"
  ],
  [
   "pos",
   "i",
   "posi"
  ],
  [
   "popul",
   "ation</w>",
   "population</w>"
  ],
  [
   "o",
   "ats</w>",
   "oats</w>"
  ],
  [
   "meth",
   "ods</w>",
   "methods</w>"
  ],
  [
   "in",
   "troduc",
   "introduc"
  ],
  [
   "idd",
   "le</w>",
   "iddle</w>"
  ],
  [
   "far",
   "</w>",
   "far</w>"
  ],
  [
   "cor",
   "ne</w>",
   "corne</w>"
  ],
  [
   "tran",
   "s",
   "trans"
  ],
  [
   "ter",
   "m</w>",
   "term</w>"
  ],
  [
   "per",
   "f",
   "perf"
  ],
  [
   "j",
   "u",
   "ju"
  ],
  [
   "enc",
   "y</w>",
   "ency</w>"
  ],
  [
   "d",
   "ings</w>",
   "dings</w>"
  ],
  [
   "cl",
   "ose</w>",
   "close</w>"
  ],
  [
   "L",
   "or",
   "Lor"
  ],
  [
   "F",
   "r</w>",
   "Fr</w>"
  ],
  [
   "Eu",
   "ro",
   "Euro"
  ],
  [
   "5",
   "4</w>",
   "54</w>"
  ],
  [
   "*",
   "</w>",
   "*</w>"
  ],
  [
   "wea",
   "ther</w>",
   "weather</w>"
  ],
  [
   "see",
   "de</w>",
   "seede</w>"
  ],
  [
   "at",
   "ely</w>",
   "ately</w>"
  ],
  [
   "al",
   "most</w>",
   "almost</w>"
  ],
  [
   "W",
   "hi",
   "Whi"
  ],
  [
   "thes",
   "is</w>",
   "thesis</w>"
  ],
  [
   "ri",
   "ght</w>",
   "right</w>"
  ],
  [
   "n",
   "ear</w>",
   "near</w>"
  ],
  [
   "i",
   "ght</w>",
   "ight</w>"
  ],
  [
   "el",
   "se</w>",
   "else</w>"
  ],
  [
   "c",
   "k</w>",
   "ck</w>"
  ],
  [
   "b",
   "ot",
   "bot"
  ],
  [
   "J",
   "oh",
   "Joh"
  ],
  [
   "un",
   "i",
   "uni"
  ],
  [
   "temper",
   "at",
   "temperat"
  ],
  [
   "t",
   "wi",
   "twi"
  ],
  [
   "m",
   "or",
   "mor"
  ],
  [
   "ati",
   "ve</w>",
   "ative</w>"
  ],
  [
   "L",
   "on",
   "Lon"
  ],
  [
   "6",
   "4</w>",
   "64</w>"
  ],
  [
   "wi",
   "ld</w>",
   "wild</w>"
  ],
  [
   "su",
   "garcane</w>",
   "sugarcane</w>"
  ],
  [
   "sing",
   "le</w>",
   "single</w>"
  ],
  [
   "pr",
   "inc",
   "princ"
  ],
  [
   "plac",
   "es</w>",
   "places</w>"
  ],
  [
   "ma",
   "ch",
   "mach"
  ],
  [
   "h",
   "in",
   "hin"
  ],
  [
   "ch",
   "il",
   "chil"
  ],
  [
   "b",
   "a",
   "ba"
  ],
  [
   "qu",
   "ality</w>",
   "quality</w>"
  ],
  [
   "pollin",
   "ation</w>",
   "pollination</w>"
  ],
  [
   "ot",
   "al</w>",
   "otal</w>"
  ],
  [
   "li",
   "es</w>",
   "lies</w>"
  ],
  [
   "har",
   "d</w>",
   "hard</w>"
  ],
  [
   "h",
   "old</w>",
   "hold</w>"
  ],
  [
   "for",
   "mer</w>",
   "former</w>"
  ],
  [
   "ec",
   "e</w>",
   "ece</w>"
  ],
  [
   "d",
   "on</w>",
   "don</w>"
  ],
  [
   "ac",
   "id</w>",
   "acid</w>"
  ],
  [
   "So",
   "il</w>",
   "Soil</w>"
  ],
  [
   "6",
   "3</w>",
   "63</w>"
  ],
  [
   "4",
   "3</w>",
   "43</w>"
  ],
  [
   "u",
   "er",
   "uer"
  ],
  [
   "m",
   "al",
   "mal"
  ],
  [
   "ic",
   "es</w>",
   "ices</w>"
  ],
  [
   "com",
   "par",
   "compar"
  ],
  [
   "al",
   "ways</w>",
   "always</w>"
  ],
  [
   "Wi",
   "th</w>",
   "With</w>"
  ],
  [
   "O",
   "n</w>",
   "On</w>"
  ],
  [
   "F",
   "ro",
   "Fro"
  ],
  [
   "sp",
   "or",
   "spor"
  ],
  [
   "s",
   "ou",
   "sou"
  ],
  [
   "rec",
   "ei",
   "recei"
  ],
  [
   "pro",
   "te",
   "prote"
  ],
  [
   "oo",
   "ke</w>",
   "ooke</w>"
  ],
  [
   "l",
   "ay",
   "lay"
  ],
  [
   "kin",
   "ds</w>",
   "kinds</w>"
  ],
  [
   "j",
   "ust</w>",
   "just</w>"
  ],
  [
   "iz",
   "ed</w>",
   "ized</w>"
  ],
  [
   "in",
   "di",
   "indi"
  ],
  [
   "fic",
   "ation</w>",
   "fication</w>"
  ],
  [
   "c",
   "are</w>",
   "care</w>"
  ],
  [
   "S",
   "outh</w>",
   "South</w>"
  ],
  [
   "E",
   "R",
   "ER"
  ],
  [
   "4",
   "5</w>",
   "45</w>"
  ],
  [
   "19",
   "0",
   "190"
  ],
  [
   "veget",
   "ables</w>",
   "vegetables</w>"
  ],
  [
   "vari",
   "ous</w>",
   "various</w>"
  ],
  [
   "so",
   "y",
   "soy"
  ],
  [
   "ri",
   "es</w>",
   "ries</w>"
  ],
  [
   "r",
   "ound</w>",
   "round</w>"
  ],
  [
   "pos",
   "ed</w>",
   "posed</w>"
  ],
  [
   "ou",
   "er</w>",
   "ouer</w>"
  ],
  [
   "n",
   "on</w>",
   "non</w>"
  ],
  [
   "gi",
   "ue</w>",
   "giue</w>"
  ],
  [
   "e",
   "di",
   "edi"
  ],
  [
   "c",
   "ust",
   "cust"
  ],
  [
   "c",
   "ra",
   "cra"
  ],
  [
   "Indi",
   "an</w>",
   "Indian</w>"
  ],
  [
   "Hist",
   "ory</w>",
   "History</w>"
  ],
  [
   "H",
   "is</w>",
   "His</w>"
  ],
  [
   "su",
   "n",
   "sun"
  ],
  [
   "stri",
   "c",
   "stric"
  ],
  [
   "rot",
   "ation</w>",
   "rotation</w>"
  ],
  [
   "re",
   "ac",
   "reac"
  ],
  [
   "por",
   "ts</w>",
   "ports</w>"
  ],
  [
   "ox",
   "y",
   "oxy"
  ],
  [
   "in",
   "ches</w>",
   "inches</w>"
  ],
  [
   "il",
   "le",
   "ille"
  ],
  [
   "ea",
   "d",
   "ead"
  ],
  [
   "dr",
   "in",
   "drin"
  ],
  [
   "cl",
   "over</w>",
   "clover</w>"
  ],
  [
   "ar",
   "able</w>",
   "arable</w>"
  ],
  [
   "_",
   "C",
   "_C"
  ],
  [
   "H",
   "op",
   "Hop"
  ],
  [
   "4",
   "6</w>",
   "46</w>"
  ],
  [
   "wor",
   "d</w>",
   "word</w>"
  ],
  [
   "the",
   "m",
   "them"
  ],
  [
   "sour",
   "ce</w>",
   "source</w>"
  ],
  [
   "s",
   "qu",
   "squ"
  ],
  [
   "s",
   "owing</w>",
   "sowing</w>"
  ],
  [
   "rac",
   "t</w>",
   "ract</w>"
  ],
  [
   "on",
   "ed</w>",
   "oned</w>"
  ],
  [
   "k",
   "ers</w>",
   "kers</w>"
  ],
  [
   "ha",
   "ving</w>",
   "having</w>"
  ],
  [
   "fac",
   "t",
   "fact"
  ],
  [
   "e",
   "w",
   "ew"
  ],
  [
   "ca",
   "used</w>",
   "caused</w>"
  ],
  [
   "bu",
   "tter</w>",
   "butter</w>"
  ],
  [
   "TI",
   "ON</w>",
   "TION</w>"
  ],
  [
   "t",
   "ow",
   "tow"
  ],
  [
   "ra",
   "ise</w>",
   "raise</w>"
  ],
  [
   "por",
   "tion</w>",
   "portion</w>"
  ],
  [
   "nat",
   "ure</w>",
   "nature</w>"
  ],
  [
   "min",
   "er",
   "miner"
  ],
  [
   "mic",
   "ro",
   "micro"
  ],
  [
   "los",
   "s</w>",
   "loss</w>"
  ],
  [
   "i",
   "ds</w>",
   "ids</w>"
  ],
  [
   "cover",
   "ed</w>",
   "covered</w>"
  ],
  [
   "P",
   "ri",
   "Pri"
  ],
  [
   "M",
   "r</w>",
   "Mr</w>"
  ],
  [
   "CH",
   "A",
   "CHA"
  ],
  [
   "6",
   "5</w>",
   "65</w>"
  ],
  [
   "5",
   "2</w>",
   "52</w>"
  ],
  [
   "signi",
   "fic",
   "signific"
  ],
  [
   "ro",
   "n</w>",
   "ron</w>"
  ],
  [
   "prev",
   "ent</w>",
   "prevent</w>"
  ],
  [
   "poll",
   "en</w>",
   "pollen</w>"
  ],
  [
   "p",
   "an",
   "pan"
  ],
  [
   "mark",
   "et</w>",
   "market</w>"
  ],
  [
   "cour",
   "se</w>",
   "course</w>"
  ],
  [
   "ci",
   "al</w>",
   "cial</w>"
  ],
  [
   "ch",
   "a",
   "cha"
  ],
  [
   "beg",
   "an</w>",
   "began</w>"
  ],
  [
   "R",
   "i",
   "Ri"
  ],
  [
   "Fro",
   "m</w>",
   "From</w>"
  ],
  [
   "F",
   "or",
   "For"
  ],
  [
   "Ch",
   "ina</w>",
   "China</w>"
  ],
  [
   "4",
   "d</w>",
   "4d</w>"
  ],
  [
   "4",
   "8</w>",
   "48</w>"
  ],
  [
   "vari",
   "ety</w>",
   "variety</w>"
  ],
  [
   "th",
   "ings</w>",
   "things</w>"
  ],
  [
   "sup",
   "ply</w>",
   "supply</w>"
  ],
  [
   "si",
   "x",
   "six"
  ],
  [
   "si",
   "ons</w>",
   "sions</w>"
  ],
  [
   "si",
   "a</w>",
   "sia</w>"
  ],
  [
   "r",
   "ates</w>",
   "rates</w>"
  ],
  [
   "pro",
   "per</w>",
   "proper</w>"
  ],
  [
   "ir",
   "es</w>",
   "ires</w>"
  ],
  [
   "high",
   "er</w>",
   "higher</w>"
  ],
  [
   "glob",
   "al</w>",
   "global</w>"
  ],
  [
   "gi",
   "ve</w>",
   "give</w>"
  ],
  [
   "f",
   "f</w>",
   "ff</w>"
  ],
  [
   "chem",
   "ical</w>",
   "chemical</w>"
  ],
  [
   "N",
   "ew</w>",
   "New</w>"
  ],
  [
   "L",
   "at</w>",
   "Lat</w>"
  ],
  [
   "w",
   "et</w>",
   "wet</w>"
  ],
  [
   "li",
   "me</w>",
   "lime</w>"
  ],
  [
   "h",
   "er</w>",
   "her</w>"
  ],
  [
   "fi",
   "g",
   "fig"
  ],
  [
   "4",
   "4</w>",
   "44</w>"
  ],
  [
   "occ",
   "ur",
   "occur"
  ],
  [
   "est",
   "er",
   "ester"
  ],
  [
   "bre",
   "ed</w>",
   "breed</w>"
  ],
  [
   "bl",
   "acke</w>",
   "blacke</w>"
  ],
  [
   "bac",
   "k</w>",
   "back</w>"
  ],
  [
   "b",
   "ra",
   "bra"
  ],
  [
   "ap",
   "pro",
   "appro"
  ],
  [
   "al",
   "ter",
   "alter"
  ],
  [
   "M",
   "any</w>",
   "Many</w>"
  ],
  [
   "4",
   "1</w>",
   "41</w>"
  ],
  [
   "them",
   "sel",
   "themsel"
  ],
  [
   "se",
   "v",
   "sev"
  ],
  [
   "s",
   "ell</w>",
   "sell</w>"
  ],
  [
   "p",
   "aid</w>",
   "paid</w>"
  ],
  [
   "l",
   "ower</w>",
   "lower</w>"
  ],
  [
   "l",
   "ess",
   "less"
  ],
  [
   "l",
   "ate</w>",
   "late</w>"
  ],
  [
   "h",
   "and",
   "hand"
  ],
  [
   "fi",
   "ve</w>",
   "five</w>"
  ],
  [
   "em",
   "pl",
   "empl"
  ],
  [
   "dou",
   "b",
   "doub"
  ],
  [
   "c",
   "ase</w>",
   "case</w>"
  ],
  [
   "a",
   "de</w>",
   "ade</w>"
  ],
  [
   "Joh",
   "n</w>",
   "John</w>"
  ],
  [
   "D",
   "e",
   "De"
  ],
  [
   "Americ",
   "a</w>",
   "America</w>"
  ],
  [
   "5",
   "8</w>",
   "58</w>"
  ],
  [
   "2",
   "d</w>",
   "2d</w>"
  ],
  [
   "un",
   "e</w>",
   "une</w>"
  ],
  [
   "um",
   "es</w>",
   "umes</w>"
  ],
  [
   "stron",
   "g</w>",
   "strong</w>"
  ],
  [
   "si",
   "x</w>",
   "six</w>"
  ],
  [
   "sh",
   "ar",
   "shar"
  ],
  [
   "pres",
   "ent</w>",
   "present</w>"
  ],
  [
   "orig",
   "in",
   "origin"
  ],
  [
   "ne",
   "uer</w>",
   "neuer</w>"
  ],
  [
   "ne",
   "igh",
   "neigh"
  ],
  [
   "form",
   "ed</w>",
   "formed</w>"
  ],
  [
   "fee",
   "t</w>",
   "feet</w>"
  ],
  [
   "d",
   "an",
   "dan"
  ],
  [
   "al",
   "though</w>",
   "although</w>"
  ],
  [
   "al",
   "es</w>",
   "ales</w>"
  ],
  [
   "P",
   "o",
   "Po"
  ],
  [
   "P",
   "er",
   "Per"
  ],
  [
   "8",
   "9</w>",
   "89</w>"
  ],
  [
   "11",
   "4</w>",
   "114</w>"
  ],
  [
   "+",
   "</w>",
   "+</w>"
  ],
  [
   "v",
   "el</w>",
   "vel</w>"
  ],
  [
   "st",
   "oc",
   "stoc"
  ],
  [
   "sor",
   "t</w>",
   "sort</w>"
  ],
  [
   "ra",
   "ther</w>",
   "rather</w>"
  ],
  [
   "pe",
   "as</w>",
   "peas</w>"
  ],
  [
   "mon",
   "ey</w>",
   "money</w>"
  ],
  [
   "h",
   "u",
   "hu"
  ],
  [
   "ex",
   "t",
   "ext"
  ],
  [
   "ex",
   "pen",
   "expen"
  ],
  [
   "es",
   "h",
   "esh"
  ],
  [
   "enti",
   "al</w>",
   "ential</w>"
  ],
  [
   "bree",
   "ding</w>",
   "breeding</w>"
  ],
  [
   "Su",
   "ch</w>",
   "Such</w>"
  ],
  [
   "C",
   "ol",
   "Col"
  ],
  [
   "tur",
   "n</w>",
   "turn</w>"
  ],
  [
   "ten",
   "ant</w>",
   "tenant</w>"
  ],
  [
   "t",
   "otal</w>",
   "total</w>"
  ],
  [
   "st",
   "ore</w>",
   "store</w>"
  ],
  [
   "sh",
   "es</w>",
   "shes</w>"
  ],
  [
   "res",
   "s</w>",
   "ress</w>"
  ],
  [
   "loo",
   "ke</w>",
   "looke</w>"
  ],
  [
   "kn",
   "ow",
   "know"
  ],
  [
   "he",
   "alth</w>",
   "health</w>"
  ],
  [
   "g",
   "ent",
   "gent"
  ],
  [
   "cer",
   "tain</w>",
   "certain</w>"
  ],
  [
   "be",
   "ans</w>",
   "beans</w>"
  ],
  [
   "D",
   "ev",
   "Dev"
  ],
  [
   "C",
   "ar",
   "Car"
  ],
  [
   "B",
   "o",
   "Bo"
  ],
  [
   "Agricultur",
   "al</w>",
   "Agricultural</w>"
  ],
  [
   "9",
   "5</w>",
   "95</w>"
  ],
  [
   "v",
   "ely</w>",
   "vely</w>"
  ],
  [
   "r",
   "ye</w>",
   "rye</w>"
  ],
  [
   "pur",
   "pose</w>",
   "purpose</w>"
  ],
  [
   "pp",
   "ing</w>",
   "pping</w>"
  ],
  [
   "oo",
   "l</w>",
   "ool</w>"
  ],
  [
   "ni",
   "ght</w>",
   "night</w>"
  ],
  [
   "nat",
   "ur",
   "natur"
  ],
  [
   "n",
   "ote</w>",
   "note</w>"
  ],
  [
   "m",
   "ead",
   "mead"
  ],
  [
   "larg",
   "est</w>",
   "largest</w>"
  ],
  [
   "in",
   "j",
   "inj"
  ],
  [
   "hou",
   "ses</w>",
   "houses</w>"
  ],
  [
   "fur",
   "ther</w>",
   "further</w>"
  ],
  [
   "fl",
   "u",
   "flu"
  ],
  [
   "ev",
   "ol",
   "evol"
  ],
  [
   "dra",
   "w",
   "draw"
  ],
  [
   "di",
   "e</w>",
   "die</w>"
  ],
  [
   "cultur",
   "e</w>",
   "culture</w>"
  ],
  [
   "consider",
   "ed</w>",
   "considered</w>"
  ],
  [
   "ar",
   "s</w>",
   "ars</w>"
  ],
  [
   "ad",
   "dition</w>",
   "addition</w>"
  ],
  [
   "W",
   "il",
   "Wil"
  ],
  [
   "V",
   "</w>",
   "V</w>"
  ],
  [
   "8",
   "6</w>",
   "86</w>"
  ],
  [
   "8",
   "5</w>",
   "85</w>"
  ],
  [
   "20",
   "0",
   "200"
  ],
  [
   "s",
   "wee",
   "swee"
  ],
  [
   "pestic",
   "ide</w>",
   "pesticide</w>"
  ],
  [
   "mi",
   "ght</w>",
   "might</w>"
  ],
  [
   "m",
   "en",
   "men"
  ],
  [
   "larg",
   "ely</w>",
   "largely</w>"
  ],
  [
   "ha",
   "ps</w>",
   "haps</w>"
  ],
  [
   "h",
   "ab",
   "hab"
  ],
  [
   "fer",
   "ie</w>",
   "ferie</w>"
  ],
  [
   "exc",
   "ell",
   "excell"
  ],
  [
   "depen",
   "d",
   "depend"
  ],
  [
   "dama",
   "ge</w>",
   "damage</w>"
  ],
  [
   "at",
   "ten",
   "atten"
  ],
  [
   "Y",
   "ou</w>",
   "You</w>"
  ],
  [
   "W",
   "</w>",
   "W</w>"
  ],
  [
   "L",
   "et</w>",
   "Let</w>"
  ],
  [
   "C",
   "oun",
   "Coun"
  ],
  [
   "9",
   "9</w>",
   "99</w>"
  ],
  [
   "s",
   "ci",
   "sci"
  ],
  [
   "resul",
   "t</w>",
   "result</w>"
  ],
  [
   "p",
   "ol",
   "pol"
  ],
  [
   "ot",
   "ed</w>",
   "oted</w>"
  ],
  [
   "os",
   "y",
   "osy"
  ],
  [
   "nee",
   "ded</w>",
   "needed</w>"
  ],
  [
   "mix",
   "ture</w>",
   "mixture</w>"
  ],
  [
   "meth",
   "od</w>",
   "method</w>"
  ],
  [
   "materi",
   "al</w>",
   "material</w>"
  ],
  [
   "ma",
   "kes</w>",
   "makes</w>"
  ],
  [
   "le",
   "ar",
   "lear"
  ],
  [
   "lat",
   "ter</w>",
   "latter</w>"
  ],
  [
   "lar",
   "ger</w>",
   "larger</w>"
  ],
  [
   "k",
   "eth</w>",
   "keth</w>"
  ],
  [
   "develop",
   "ment</w>",
   "development</w>"
  ],
  [
   "bush",
   "els</w>",
   "bushels</w>"
  ],
  [
   "at",
   "ors</w>",
   "ators</w>"
  ],
  [
   "Mar",
   "ch</w>",
   "March</w>"
  ],
  [
   "M",
   "ay</w>",
   "May</w>"
  ],
  [
   "u",
   "ed</w>",
   "ued</w>"
  ],
  [
   "the",
   "tic</w>",
   "thetic</w>"
  ],
  [
   "ten",
   "ants</w>",
   "tenants</w>"
  ],
  [
   "sp",
   "ea",
   "spea"
  ],
  [
   "l",
   "ater</w>",
   "later</w>"
  ],
  [
   "do",
   "m</w>",
   "dom</w>"
  ],
  [
   "9",
   "3</w>",
   "93</w>"
  ],
  [
   "ul",
   "t</w>",
   "ult</w>"
  ],
  [
   "si",
   "mil",
   "simil"
  ],
  [
   "ric",
   "a</w>",
   "rica</w>"
  ],
  [
   "ri",
   "s",
   "ris"
  ],
  [
   "r",
   "ing</w>",
   "ring</w>"
  ],
  [
   "pr",
   "</w>",
   "pr</w>"
  ],
  [
   "pot",
   "atoes</w>",
   "potatoes</w>"
  ],
  [
   "lon",
   "ger</w>",
   "longer</w>"
  ],
  [
   "im",
   "pl",
   "impl"
  ],
  [
   "en",
   "ni",
   "enni"
  ],
  [
   "der",
   "i",
   "deri"
  ],
  [
   "b",
   "il",
   "bil"
  ],
  [
   "W",
   "in",
   "Win"
  ],
  [
   "Nor",
   "th</w>",
   "North</w>"
  ],
  [
   "N",
   "o</w>",
   "No</w>"
  ],
  [
   "Lor",
   "d</w>",
   "Lord</w>"
  ],
  [
   "Af",
   "rica</w>",
   "Africa</w>"
  ],
  [
   "AN",
   "D</w>",
   "AND</w>"
  ],
  [
   "A",
   "p",
   "Ap"
  ],
  [
   "7",
   "9</w>",
   "79</w>"
  ],
  [
   "us",
   "_</w>",
   "us_</w>"
  ],
  [
   "tw",
   "enty</w>",
   "twenty</w>"
  ],
  [
   "shi",
   "p</w>",
   "ship</w>"
  ],
  [
   "sh",
   "e</w>",
   "she</w>"
  ],
  [
   "se",
   "en</w>",
   "seen</w>"
  ],
  [
   "s",
   "old</w>",
   "sold</w>"
  ],
  [
   "pu",
   "b",
   "pub"
  ],
  [
   "prob",
   "ably</w>",
   "probably</w>"
  ],
  [
   "pro",
   "fit",
   "profit"
  ],
  [
   "per",
   "im",
   "perim"
  ],
  [
   "k",
   "ill</w>",
   "kill</w>"
  ],
  [
   "indu",
   "stry</w>",
   "industry</w>"
  ],
  [
   "impro",
   "ved</w>",
   "improved</w>"
  ],
  [
   "f",
   "ed</w>",
   "fed</w>"
  ],
  [
   "ee",
   "pe</w>",
   "eepe</w>"
  ],
  [
   "L",
   "e",
   "Le"
  ],
  [
   "G",
   "er",
   "Ger"
  ],
  [
   "C",
   "f</w>",
   "Cf</w>"
  ],
  [
   "6",
   "7</w>",
   "67</w>"
  ],
  [
   "v",
   "y</w>",
   "vy</w>"
  ],
  [
   "so",
   "one</w>",
   "soone</w>"
  ],
  [
   "ri",
   "bu",
   "ribu"
  ],
  [
   "re",
   "se",
   "rese"
  ],
  [
   "ran",
   "ge</w>",
   "range</w>"
  ],
  [
   "our",
   "s</w>",
   "ours</w>"
  ],
  [
   "nutri",
   "ent</w>",
   "nutrient</w>"
  ],
  [
   "m",
   "es</w>",
   "mes</w>"
  ],
  [
   "l",
   "am",
   "lam"
  ],
  [
   "f",
   "requ",
   "frequ"
  ],
  [
   "ev",
   "id",
   "evid"
  ],
  [
   "et",
   "e</w>",
   "ete</w>"
  ],
  [
   "eff",
   "ects</w>",
   "effects</w>"
  ],
  [
   "cl",
   "es</w>",
   "cles</w>"
  ],
  [
   "b",
   "ru",
   "bru"
  ],
  [
   "app",
   "lied</w>",
   "applied</w>"
  ],
  [
   "_",
   "S",
   "_S"
  ],
  [
   "Wh",
   "eate</w>",
   "Wheate</w>"
  ],
  [
   "R",
   "E",
   "RE"
  ],
  [
   "O",
   "x",
   "Ox"
  ],
  [
   "I",
   "S",
   "IS"
  ],
  [
   "H",
   "er",
   "Her"
  ],
  [
   "G",
   "ra",
   "Gra"
  ],
  [
   "9",
   "7</w>",
   "97</w>"
  ],
  [
   "1",
   "s</w>",
   "1s</w>"
  ],
  [
   "ye",
   "ere</w>",
   "yeere</w>"
  ],
  [
   "wh",
   "ose</w>",
   "whose</w>"
  ],
  [
   "si",
   "ze</w>",
   "size</w>"
  ],
  [
   "sel",
   "fe</w>",
   "selfe</w>"
  ],
  [
   "ri",
   "ed</w>",
   "ried</w>"
  ],
  [
   "moder",
   "n</w>",
   "modern</w>"
  ],
  [
   "increas",
   "ing</w>",
   "increasing</w>"
  ],
  [
   "d",
   "owne</w>",
   "downe</w>"
  ],
  [
   "c",
   "old</w>",
   "cold</w>"
  ],
  [
   "bi",
   "d</w>",
   "bid</w>"
  ],
  [
   "Wh",
   "eat</w>",
   "Wheat</w>"
  ],
  [
   "there",
   "of</w>",
   "thereof</w>"
  ],
  [
   "st",
   "er</w>",
   "ster</w>"
  ],
  [
   "st",
   "ar",
   "star"
  ],
  [
   "si",
   "m",
   "sim"
  ],
  [
   "ous",
   "ly</w>",
   "ously</w>"
  ],
  [
   "oun",
   "d",
   "ound"
  ],
  [
   "maj",
   "or</w>",
   "major</w>"
  ],
  [
   "li",
   "gh",
   "ligh"
  ],
  [
   "l",
   "ack</w>",
   "lack</w>"
  ],
  [
   "indu",
   "stri",
   "industri"
  ],
  [
   "be",
   "came</w>",
   "became</w>"
  ],
  [
   "a",
   "to</w>",
   "ato</w>"
  ],
  [
   "Wh",
   "ere</w>",
   "Where</w>"
  ],
  [
   "TE",
   "R</w>",
   "TER</w>"
  ],
  [
   "F",
   "ur",
   "Fur"
  ],
  [
   "z",
   "ed</w>",
   "zed</w>"
  ],
  [
   "y",
   "s",
   "ys"
  ],
  [
   "sum",
   "mer</w>",
   "summer</w>"
  ],
  [
   "sor",
   "ts</w>",
   "sorts</w>"
  ],
  [
   "s",
   "ul",
   "sul"
  ],
  [
   "re",
   "le",
   "rele"
  ],
  [
   "r",
   "ents</w>",
   "rents</w>"
  ],
  [
   "pro",
   "vi",
   "provi"
  ],
  [
   "m",
   "ing</w>",
   "ming</w>"
  ],
  [
   "m",
   "et",
   "met"
  ],
  [
   "iz",
   "ation</w>",
   "ization</w>"
  ],
  [
   "ici",
   "ency</w>",
   "iciency</w>"
  ],
  [
   "i",
   "ther</w>",
   "ither</w>"
  ],
  [
   "i",
   "ous</w>",
   "ious</w>"
  ],
  [
   "fi",
   "sh</w>",
   "fish</w>"
  ],
  [
   "di",
   "versity</w>",
   "diversity</w>"
  ],
  [
   "cont",
   "ent</w>",
   "content</w>"
  ],
  [
   "comm",
   "only</w>",
   "commonly</w>"
  ],
  [
   "che",
   "ese</w>",
   "cheese</w>"
  ],
  [
   "c",
   "k",
   "ck"
  ],
  [
   "begin",
   "ning</w>",
   "beginning</w>"
  ],
  [
   "P",
   "ease</w>",
   "Pease</w>"
  ],
  [
   "M",
   "i",
   "Mi"
  ],
  [
   "K",
   "</w>",
   "K</w>"
  ],
  [
   "A",
   "n</w>",
   "An</w>"
  ],
  [
   "6",
   "6</w>",
   "66</w>"
  ],
  [
   "vnder",
   "stand</w>",
   "vnderstand</w>"
  ],
  [
   "u",
   "est</w>",
   "uest</w>"
  ],
  [
   "ti",
   "le</w>",
   "tile</w>"
  ],
  [
   "ne",
   "g",
   "neg"
  ],
  [
   "n",
   "early</w>",
   "nearly</w>"
  ],
  [
   "l",
   "ost</w>",
   "lost</w>"
  ],
  [
   "h",
   "ir</w>",
   "hir</w>"
  ],
  [
   "fru",
   "its</w>",
   "fruits</w>"
  ],
  [
   "f",
   "ast</w>",
   "fast</w>"
  ],
  [
   "di",
   "sp",
   "disp"
  ],
  [
   "be",
   "es</w>",
   "bees</w>"
  ],
  [
   "a",
   "th</w>",
   "ath</w>"
  ],
  [
   "S",
   "o</w>",
   "So</w>"
  ],
  [
   "H",
   "or",
   "Hor"
  ],
  [
   "7",
   "1</w>",
   "71</w>"
  ],
  [
   "6",
   "9</w>",
   "69</w>"
  ],
  [
   "th",
   "es</w>",
   "thes</w>"
  ],
  [
   "st",
   "ant</w>",
   "stant</w>"
  ],
  [
   "practi",
   "ce</w>",
   "practice</w>"
  ],
  [
   "nati",
   "onal</w>",
   "national</w>"
  ],
  [
   "li",
   "shed</w>",
   "lished</w>"
  ],
  [
   "kee",
   "pe</w>",
   "keepe</w>"
  ],
  [
   "i",
   "o",
   "io"
  ],
  [
   "ga",
   "ther</w>",
   "gather</w>"
  ],
  [
   "g",
   "y",
   "gy"
  ],
  [
   "d",
   "_</w>",
   "d_</w>"
  ],
  [
   "co",
   "ver</w>",
   "cover</w>"
  ],
  [
   "bo",
   "dy</w>",
   "body</w>"
  ],
  [
   "am",
   "p",
   "amp"
  ],
  [
   "SE",
   "C",
   "SEC"
  ],
  [
   "M",
   "o",
   "Mo"
  ],
  [
   "C",
   "ro",
   "Cro"
  ],
  [
   "4",
   "9</w>",
   "49</w>"
  ],
  [
   "p",
   "ay</w>",
   "pay</w>"
  ],
  [
   "ou",
   "ri",
   "ouri"
  ],
  [
   "neigh",
   "b",
   "neighb"
  ],
  [
   "mix",
   "t</w>",
   "mixt</w>"
  ],
  [
   "er",
   "ie</w>",
   "erie</w>"
  ],
  [
   "empl",
   "oy",
   "employ"
  ],
  [
   "e",
   "enth</w>",
   "eenth</w>"
  ],
  [
   "dr",
   "ed</w>",
   "dred</w>"
  ],
  [
   "cut",
   "ting</w>",
   "cutting</w>"
  ],
  [
   "col",
   "lec",
   "collec"
  ],
  [
   "ac",
   "k",
   "ack"
  ],
  [
   "a",
   "ch</w>",
   "ach</w>"
  ],
  [
   "Or",
   "gan",
   "Organ"
  ],
  [
   "6",
   "2</w>",
   "62</w>"
  ],
  [
   "tra",
   "de</w>",
   "trade</w>"
  ],
  [
   "st",
   "a",
   "sta"
  ],
  [
   "qu",
   "ick",
   "quick"
  ],
  [
   "posi",
   "tion</w>",
   "position</w>"
  ],
  [
   "photosyn",
   "thesis</w>",
   "photosynthesis</w>"
  ],
  [
   "li",
   "ving</w>",
   "living</w>"
  ],
  [
   "labour",
   "ers</w>",
   "labourers</w>"
  ],
  [
   "for",
   "ms</w>",
   "forms</w>"
  ],
  [
   "fi",
   "ts</w>",
   "fits</w>"
  ],
  [
   "ex",
   "peri",
   "experi"
  ],
  [
   "er",
   "os",
   "eros"
  ],
  [
   "environ",
   "mental</w>",
   "environmental</w>"
  ],
  [
   "eff",
   "ect</w>",
   "effect</w>"
  ],
  [
   "dra",
   "in",
   "drain"
  ],
  [
   "di",
   "tional</w>",
   "ditional</w>"
  ],
  [
   "cont",
   "ribu",
   "contribu"
  ],
  [
   "ad",
   "ap",
   "adap"
  ],
  [
   "M",
   "a",
   "Ma"
  ],
  [
   "tech",
   "n",
   "techn"
  ],
  [
   "resi",
   "stance</w>",
   "resistance</w>"
  ],
  [
   "reduc",
   "ed</w>",
   "reduced</w>"
  ],
  [
   "great",
   "est</w>",
   "greatest</w>"
  ],
  [
   "f",
   "il",
   "fil"
  ],
  [
   "en",
   "ds</w>",
   "ends</w>"
  ],
  [
   "ee",
   "de</w>",
   "eede</w>"
  ],
  [
   "comp",
   "ost</w>",
   "compost</w>"
  ],
  [
   "bas",
   "ed</w>",
   "based</w>"
  ],
  [
   "b",
   "it",
   "bit"
  ],
  [
   "b",
   "ad</w>",
   "bad</w>"
  ],
  [
   "ap",
   "e</w>",
   "ape</w>"
  ],
  [
   "Lon",
   "don</w>",
   "London</w>"
  ],
  [
   "E",
   "N",
   "EN"
  ],
  [
   "Cor",
   "ne</w>",
   "Corne</w>"
  ],
  [
   "A",
   "ust",
   "Aust"
  ],
  [
   "A",
   "b",
   "Ab"
  ],
  [
   "9",
   "4</w>",
   "94</w>"
  ],
  [
   "7",
   "6</w>",
   "76</w>"
  ],
  [
   "7",
   "2</w>",
   "72</w>"
  ],
  [
   "y",
   "l",
   "yl"
  ],
  [
   "vest",
   "ock</w>",
   "vestock</w>"
  ],
  [
   "stu",
   "dy</w>",
   "study</w>"
  ],
  [
   "so",
   "ile</w>",
   "soile</w>"
  ],
  [
   "ne",
   "ither</w>",
   "neither</w>"
  ],
  [
   "ha",
   "m</w>",
   "ham</w>"
  ],
  [
   "foo",
   "te</w>",
   "foote</w>"
  ],
  [
   "ex",
   "ten",
   "exten"
  ],
  [
   "ell",
   "ow</w>",
   "ellow</w>"
  ],
  [
   "du",
   "n",
   "dun"
  ],
  [
   "b",
   "an",
   "ban"
  ],
  [
   "at",
   "en</w>",
   "aten</w>"
  ],
  [
   "a",
   "ds</w>",
   "ads</w>"
  ],
  [
   "S",
   "ou",
   "Sou"
  ],
  [
   "O",
   "c",
   "Oc"
  ],
  [
   "H",
   "en",
   "Hen"
  ],
  [
   "Cha",
   "p</w>",
   "Chap</w>"
  ],
  [
   "8",
   "3</w>",
   "83</w>"
  ],
  [
   "ty",
   "pe</w>",
   "type</w>"
  ],
  [
   "ton",
   "nes</w>",
   "tonnes</w>"
  ],
  [
   "tic",
   "al</w>",
   "tical</w>"
  ],
  [
   "tain",
   "ing</w>",
   "taining</w>"
  ],
  [
   "so",
   "euer</w>",
   "soeuer</w>"
  ],
  [
   "re",
   "f",
   "ref"
  ],
  [
   "pre",
   "par",
   "prepar"
  ],
  [
   "per",
   "haps</w>",
   "perhaps</w>"
  ],
  [
   "oxy",
   "gen</w>",
   "oxygen</w>"
  ],
  [
   "or",
   "din",
   "ordin"
  ],
  [
   "n",
   "ever</w>",
   "never</w>"
  ],
  [
   "i",
   "um</w>",
   "ium</w>"
  ],
  [
   "ex",
   "perim",
   "experim"
  ],
  [
   "ex",
   "</w>",
   "ex</w>"
  ],
  [
   "en",
   "ded</w>",
   "ended</w>"
  ],
  [
   "eg",
   "gs</w>",
   "eggs</w>"
  ],
  [
   "eas",
   "ily</w>",
   "easily</w>"
  ],
  [
   "d",
   "eep</w>",
   "deep</w>"
  ],
  [
   "ap",
   "ple</w>",
   "apple</w>"
  ],
  [
   "_",
   "pp</w>",
   "_pp</w>"
  ],
  [
   "Y",
   "oung</w>",
   "Young</w>"
  ],
  [
   "Fi",
   "g</w>",
   "Fig</w>"
  ],
  [
   "E",
   "ar",
   "Ear"
  ],
  [
   "Chri",
   "st",
   "Christ"
  ],
  [
   "9",
   "6</w>",
   "96</w>"
  ],
  [
   "9",
   "1</w>",
   "91</w>"
  ],
  [
   "v",
   "it",
   "vit"
  ],
  [
   "v",
   "ill",
   "vill"
  ],
  [
   "ti",
   "sh</w>",
   "tish</w>"
  ],
  [
   "ti",
   "l",
   "til"
  ],
  [
   "t",
   "ings</w>",
   "tings</w>"
  ],
  [
   "stea",
   "d</w>",
   "stead</w>"
  ],
  [
   "s",
   "af",
   "saf"
  ],
  [
   "r",
   "un",
   "run"
  ],
  [
   "pe",
   "ti",
   "peti"
  ],
  [
   "p",
   "ast</w>",
   "past</w>"
  ],
  [
   "ox",
   "ide</w>",
   "oxide</w>"
  ],
  [
   "lor",
   "ds</w>",
   "lords</w>"
  ],
  [
   "lo",
   "ose</w>",
   "loose</w>"
  ],
  [
   "lea",
   "f</w>",
   "leaf</w>"
  ],
  [
   "ir",
   "y</w>",
   "iry</w>"
  ],
  [
   "introduc",
   "ed</w>",
   "introduced</w>"
  ],
  [
   "insec",
   "t</w>",
   "insect</w>"
  ],
  [
   "ic",
   "k</w>",
   "ick</w>"
  ],
  [
   "gra",
   "ins</w>",
   "grains</w>"
  ],
  [
   "fam",
   "ily</w>",
   "family</w>"
  ],
  [
   "fac",
   "t</w>",
   "fact</w>"
  ],
  [
   "f",
   "ici",
   "fici"
  ],
  [
   "ec",
   "tive</w>",
   "ective</w>"
  ],
  [
   "di",
   "g",
   "dig"
  ],
  [
   "br",
   "ought</w>",
   "brought</w>"
  ],
  [
   "Y",
   "et</w>",
   "Yet</w>"
  ],
  [
   "Soc",
   "i",
   "Soci"
  ],
  [
   "R",
   "ye</w>",
   "Rye</w>"
  ],
  [
   "M",
   "ai",
   "Mai"
  ],
  [
   "Husband",
   "man</w>",
   "Husbandman</w>"
  ],
  [
   "E",
   "d",
   "Ed"
  ],
  [
   "8",
   "7</w>",
   "87</w>"
  ],
  [
   "4",
   "7</w>",
   "47</w>"
  ],
  [
   "w",
   "o",
   "wo"
  ],
  [
   "ta",
   "ine</w>",
   "taine</w>"
  ],
  [
   "t",
   "op",
   "top"
  ],
  [
   "simil",
   "ar</w>",
   "similar</w>"
  ],
  [
   "sc",
   "ale</w>",
   "scale</w>"
  ],
  [
   "s",
   "owe</w>",
   "sowe</w>"
  ],
  [
   "qu",
   "i",
   "qui"
  ],
  [
   "nati",
   "ve</w>",
   "native</w>"
  ],
  [
   "land",
   "lord</w>",
   "landlord</w>"
  ],
  [
   "ir",
   "s</w>",
   "irs</w>"
  ],
  [
   "gra",
   "ft</w>",
   "graft</w>"
  ],
  [
   "consum",
   "ption</w>",
   "consumption</w>"
  ],
  [
   "comm",
   "er",
   "commer"
  ],
  [
   "am",
   "s</w>",
   "ams</w>"
  ],
  [
   "P",
   "e",
   "Pe"
  ],
  [
   "F",
   "e",
   "Fe"
  ],
  [
   "C",
   "ul",
   "Cul"
  ],
  [
   "8",
   "8</w>",
   "88</w>"
  ],
  [
   "8",
   "2</w>",
   "82</w>"
  ],
  [
   "6",
   "8</w>",
   "68</w>"
  ],
  [
   "z",
   "ing</w>",
   "zing</w>"
  ],
  [
   "y",
   "ard</w>",
   "yard</w>"
  ],
  [
   "wor",
   "ke</w>",
   "worke</w>"
  ],
  [
   "t",
   "ru",
   "tru"
  ],
  [
   "stan",
   "ces</w>",
   "stances</w>"
  ],
  [
   "sp",
   "o",
   "spo"
  ],
  [
   "sm",
   "all",
   "small"
  ],
  [
   "sh",
   "own</w>",
   "shown</w>"
  ],
  [
   "se",
   "ems</w>",
   "seems</w>"
  ],
  [
   "s",
   "car",
   "scar"
  ],
  [
   "re",
   "ly</w>",
   "rely</w>"
  ],
  [
   "pl",
   "ow</w>",
   "plow</w>"
  ],
  [
   "pa",
   "th",
   "path"
  ],
  [
   "ox",
   "en</w>",
   "oxen</w>"
  ],
  [
   "l",
   "esse</w>",
   "lesse</w>"
  ],
  [
   "improv",
   "ement</w>",
   "improvement</w>"
  ],
  [
   "gen",
   "e",
   "gene"
  ],
  [
   "fi",
   "f",
   "fif"
  ],
  [
   "ch",
   "e</w>",
   "che</w>"
  ],
  [
   "c",
   "u",
   "cu"
  ],
  [
   "c",
   "ast</w>",
   "cast</w>"
  ],
  [
   "b",
   "us",
   "bus"
  ],
  [
   "Th",
   "us</w>",
   "Thus</w>"
  ],
  [
   "A",
   "ll</w>",
   "All</w>"
  ],
  [
   "7",
   "4</w>",
   "74</w>"
  ],
  [
   "ren",
   "ch</w>",
   "rench</w>"
  ],
  [
   "re",
   "ase</w>",
   "rease</w>"
  ],
  [
   "m",
   "it",
   "mit"
  ],
  [
   "in",
   "ation</w>",
   "ination</w>"
  ],
  [
   "hel",
   "p</w>",
   "help</w>"
  ],
  [
   "h",
   "om",
   "hom"
  ],
  [
   "h",
   "ect",
   "hect"
  ],
  [
   "fre",
   "sh</w>",
   "fresh</w>"
  ],
  [
   "exc",
   "ept</w>",
   "except</w>"
  ],
  [
   "er",
   "ous</w>",
   "erous</w>"
  ],
  [
   "environ",
   "ment</w>",
   "environment</w>"
  ],
  [
   "ag",
   "o</w>",
   "ago</w>"
  ],
  [
   "T",
   "w",
   "Tw"
  ],
  [
   "Su",
   "ff",
   "Suff"
  ],
  [
   "C",
   "o",
   "Co"
  ],
  [
   "6",
   "1</w>",
   "61</w>"
  ],
  [
   "v",
   "ers</w>",
   "vers</w>"
  ],
  [
   "un",
   "d",
   "und"
  ],
  [
   "tic",
   "s</w>",
   "tics</w>"
  ],
  [
   "t",
   "ol",
   "tol"
  ],
  [
   "t",
   "_</w>",
   "t_</w>"
  ],
  [
   "some",
   "what</w>",
   "somewhat</w>"
  ],
  [
   "re",
   "duce</w>",
   "reduce</w>"
  ],
  [
   "p",
   "ed</w>",
   "ped</w>"
  ],
  [
   "mix",
   "ed</w>",
   "mixed</w>"
  ],
  [
   "man",
   "or</w>",
   "manor</w>"
  ],
  [
   "ma",
   "g",
   "mag"
  ],
  [
   "k",
   "ing",
   "king"
  ],
  [
   "hop",
   "s</w>",
   "hops</w>"
  ],
  [
   "for",
   "t</w>",
   "fort</w>"
  ],
  [
   "f",
   "olk</w>",
   "folk</w>"
  ],
  [
   "f",
   "ic</w>",
   "fic</w>"
  ],
  [
   "excell",
   "ent</w>",
   "excellent</w>"
  ],
  [
   "ex",
   "p",
   "exp"
  ],
  [
   "eros",
   "ion</w>",
   "erosion</w>"
  ],
  [
   "domestic",
   "ated</w>",
   "domesticated</w>"
  ],
  [
   "de",
   "v",
   "dev"
  ],
  [
   "de",
   "gra",
   "degra"
  ],
  [
   "con",
   "ver",
   "conver"
  ],
  [
   "com",
   "po",
   "compo"
  ],
  [
   "ch",
   "ea",
   "chea"
  ],
  [
   "accoun",
   "t</w>",
   "account</w>"
  ],
  [
   "Th",
   "ough</w>",
   "Though</w>"
  ],
  [
   "S",
   "ir</w>",
   "Sir</w>"
  ],
  [
   "O",
   "ther</w>",
   "Other</w>"
  ],
  [
   "Euro",
   "pe</w>",
   "Europe</w>"
  ],
  [
   "8",
   "1</w>",
   "81</w>"
  ],
  [
   "2",
   "s</w>",
   "2s</w>"
  ],
  [
   "ul",
   "es</w>",
   "ules</w>"
  ],
  [
   "sy",
   "n",
   "syn"
  ],
  [
   "s",
   "av",
   "sav"
  ],
  [
   "row",
   "n</w>",
   "rown</w>"
  ],
  [
   "pri",
   "m",
   "prim"
  ],
  [
   "plac",
   "ed</w>",
   "placed</w>"
  ],
  [
   "our",
   "ces</w>",
   "ources</w>"
  ],
  [
   "ni",
   "ps</w>",
   "nips</w>"
  ],
  [
   "j",
   "ect</w>",
   "ject</w>"
  ],
  [
   "ill",
   "ed</w>",
   "illed</w>"
  ],
  [
   "i",
   "ons</w>",
   "ions</w>"
  ],
  [
   "for",
   "mation</w>",
   "formation</w>"
  ],
  [
   "es",
   "ses</w>",
   "esses</w>"
  ],
  [
   "con",
   "sequ",
   "consequ"
  ],
  [
   "bir",
   "ds</w>",
   "birds</w>"
  ],
  [
   "ac",
   "t</w>",
   "act</w>"
  ],
  [
   "a",
   "x",
   "ax"
  ],
  [
   "_",
   "d</w>",
   "_d</w>"
  ],
  [
   "H",
   "ow</w>",
   "How</w>"
  ],
  [
   "C",
   "an",
   "Can"
  ],
  [
   "B",
   "C</w>",
   "BC</w>"
  ],
  [
   "themsel",
   "ves</w>",
   "themselves</w>"
  ],
  [
   "temperat",
   "ure</w>",
   "temperature</w>"
  ],
  [
   "struc",
   "ture</w>",
   "structure</w>"
  ],
  [
   "sal",
   "t</w>",
   "salt</w>"
  ],
  [
   "sa",
   "ue</w>",
   "saue</w>"
  ],
  [
   "ro",
   "ss</w>",
   "ross</w>"
  ],
  [
   "p",
   "ower</w>",
   "power</w>"
  ],
  [
   "le",
   "dge</w>",
   "ledge</w>"
  ],
  [
   "huswi",
   "ferie</w>",
   "huswiferie</w>"
  ],
  [
   "great",
   "ly</w>",
   "greatly</w>"
  ],
  [
   "g",
   "as</w>",
   "gas</w>"
  ],
  [
   "four",
   "e</w>",
   "foure</w>"
  ],
  [
   "el",
   "ie</w>",
   "elie</w>"
  ],
  [
   "el",
   "ec",
   "elec"
  ],
  [
   "c",
   "ows</w>",
   "cows</w>"
  ],
  [
   "all",
   "owed</w>",
   "allowed</w>"
  ],
  [
   "ag",
   "ain</w>",
   "again</w>"
  ],
  [
   "a",
   "ut",
   "aut"
  ],
  [
   "U",
   "S</w>",
   "US</w>"
  ],
  [
   "R",
   "I",
   "RI"
  ],
  [
   "H",
   "ol",
   "Hol"
  ],
  [
   "Americ",
   "an</w>",
   "American</w>"
  ],
  [
   "9",
   "2</w>",
   "92</w>"
  ],
  [
   "5",
   "00</w>",
   "500</w>"
  ],
  [
   "2",
   "00</w>",
   "200</w>"
  ],
  [
   "t",
   "ou",
   "tou"
  ],
  [
   "stan",
   "ding</w>",
   "standing</w>"
  ],
  [
   "ro",
   "otes</w>",
   "rootes</w>"
  ],
  [
   "regi",
   "ons</w>",
   "regions</w>"
  ],
  [
   "reas",
   "on</w>",
   "reason</w>"
  ],
  [
   "princ",
   "ip",
   "princip"
  ],
  [
   "ou",
   "ra",
   "oura"
  ],
  [
   "om",
   "as</w>",
   "omas</w>"
  ],
  [
   "man",
   "u",
   "manu"
  ],
  [
   "m",
   "ee",
   "mee"
  ],
  [
   "li",
   "vestock</w>",
   "livestock</w>"
  ],
  [
   "l",
   "u",
   "lu"
  ],
  [
   "ha",
   "uing</w>",
   "hauing</w>"
  ],
  [
   "gener",
   "al</w>",
   "general</w>"
  ],
  [
   "f",
   "al",
   "fal"
  ],
  [
   "diff",
   "ic",
   "diffic"
  ],
  [
   "be",
   "ar",
   "bear"
  ],
  [
   "ann",
   "ual</w>",
   "annual</w>"
  ],
  [
   "an",
   "ci",
   "anci"
  ],
  [
   "_",
   "D",
   "_D"
  ],
  [
   "T",
   "re",
   "Tre"
  ],
  [
   "Man",
   "ure</w>",
   "Manure</w>"
  ],
  [
   "L",
   "and</w>",
   "Land</w>"
  ],
  [
   "D",
   "o",
   "Do"
  ],
  [
   "Com",
   "p",
   "Comp"
  ],
  [
   "!",
   "</w>",
   "!</w>"
  ],
  [
   "y",
   "ed</w>",
   "yed</w>"
  ],
  [
   "w",
   "ant</w>",
   "want</w>"
  ],
  [
   "ur",
   "ed</w>",
   "ured</w>"
  ],
  [
   "u",
   "en",
   "uen"
  ],
  [
   "ta",
   "ins</w>",
   "tains</w>"
  ],
  [
   "t",
   "ea",
   "tea"
  ],
  [
   "sol",
   "ution</w>",
   "solution</w>"
  ],
  [
   "sh",
   "ow</w>",
   "show</w>"
  ],
  [
   "profit",
   "able</w>",
   "profitable</w>"
  ],
  [
   "produc",
   "tivity</w>",
   "productivity</w>"
  ],
  [
   "p",
   "ay",
   "pay"
  ],
  [
   "o",
   "id</w>",
   "oid</w>"
  ],
  [
   "mul",
   "ti",
   "multi"
  ],
  [
   "impor",
   "ts</w>",
   "imports</w>"
  ],
  [
   "h",
   "eld</w>",
   "held</w>"
  ],
  [
   "for",
   "t",
   "fort"
  ],
  [
   "en",
   "ed</w>",
   "ened</w>"
  ],
  [
   "coun",
   "ties</w>",
   "counties</w>"
  ],
  [
   "con",
   "cent",
   "concent"
  ],
  [
   "cle",
   "ane</w>",
   "cleane</w>"
  ],
  [
   "chi",
   "ef</w>",
   "chief</w>"
  ],
  [
   "ch",
   "lor",
   "chlor"
  ],
  [
   "c",
   "oc",
   "coc"
  ],
  [
   "bl",
   "ack</w>",
   "black</w>"
  ],
  [
   "bil",
   "lion</w>",
   "billion</w>"
  ],
  [
   "at",
   "or</w>",
   "ator</w>"
  ],
  [
   "adv",
   "ant",
   "advant"
  ],
  [
   "SEC",
   "TION</w>",
   "SECTION</w>"
  ],
  [
   "S",
   "ep",
   "Sep"
  ],
  [
   "E",
   "s",
   "Es"
  ],
  [
   "B",
   "ra",
   "Bra"
  ],
  [
   "A",
   "T",
   "AT"
  ],
  [
   "8",
   "4</w>",
   "84</w>"
  ],
  [
   "z",
   "</w>",
   "z</w>"
  ],
  [
   "vel",
   "s</w>",
   "vels</w>"
  ],
  [
   "serv",
   "ices</w>",
   "services</w>"
  ],
  [
   "se",
   "x</w>",
   "sex</w>"
  ],
  [
   "row",
   "es</w>",
   "rowes</w>"
  ],
  [
   "ri",
   "pe</w>",
   "ripe</w>"
  ],
  [
   "provi",
   "de</w>",
   "provide</w>"
  ],
  [
   "pro",
   "sp",
   "prosp"
  ],
  [
   "particul",
   "ar</w>",
   "particular</w>"
  ],
  [
   "n",
   "u",
   "nu"
  ],
  [
   "m",
   "ould</w>",
   "mould</w>"
  ],
  [
   "m",
   "osph",
   "mosph"
  ],
  [
   "li",
   "am",
   "liam"
  ],
  [
   "kee",
   "ping</w>",
   "keeping</w>"
  ],
  [
   "il",
   "es</w>",
   "iles</w>"
  ],
  [
   "hea",
   "vy</w>",
   "heavy</w>"
  ],
  [
   "gre",
   "ss</w>",
   "gress</w>"
  ],
  [
   "for",
   "ce</w>",
   "force</w>"
  ],
  [
   "f",
   "av",
   "fav"
  ],
  [
   "de",
   "ter",
   "deter"
  ],
  [
   "d",
   "ome</w>",
   "dome</w>"
  ],
  [
   "con",
   "dition</w>",
   "condition</w>"
  ],
  [
   "bro",
   "ad</w>",
   "broad</w>"
  ],
  [
   "be",
   "e</w>",
   "bee</w>"
  ],
  [
   "app",
   "lic",
   "applic"
  ],
  [
   "a",
   "x</w>",
   "ax</w>"
  ],
  [
   "W",
   "e</w>",
   "We</w>"
  ],
  [
   "A",
   "sia</w>",
   "Asia</w>"
  ],
  [
   "wi",
   "fe</w>",
   "wife</w>"
  ],
  [
   "ul",
   "l</w>",
   "ull</w>"
  ],
  [
   "tur",
   "ned</w>",
   "turned</w>"
  ],
  [
   "signific",
   "ant</w>",
   "significant</w>"
  ],
  [
   "ri",
   "se</w>",
   "rise</w>"
  ],
  [
   "requ",
   "ired</w>",
   "required</w>"
  ],
  [
   "phosph",
   "or",
   "phosphor"
  ],
  [
   "p",
   "ra",
   "pra"
  ],
  [
   "n",
   "ment</w>",
   "nment</w>"
  ],
  [
   "l",
   "y",
   "ly"
  ],
  [
   "l",
   "aid</w>",
   "laid</w>"
  ],
  [
   "i",
   "ii</w>",
   "iii</w>"
  ],
  [
   "husband",
   "ry</w>",
   "husbandry</w>"
  ],
  [
   "h",
   "usb",
   "husb"
  ],
  [
   "h",
   "em",
   "hem"
  ],
  [
   "gi",
   "ves</w>",
   "gives</w>"
  ],
  [
   "fur",
   "ni",
   "furni"
  ],
  [
   "em",
   "ber</w>",
   "ember</w>"
  ],
  [
   "ei",
   "g",
   "eig"
  ],
  [
   "d",
   "ate</w>",
   "date</w>"
  ],
  [
   "cot",
   "t",
   "cott"
  ],
  [
   "S",
   "t</w>",
   "St</w>"
  ],
  [
   "Nor",
   "folk</w>",
   "Norfolk</w>"
  ],
  [
   "C",
   "am",
   "Cam"
  ],
  [
   "wh",
   "at",
   "what"
  ],
  [
   "to",
   "p</w>",
   "top</w>"
  ],
  [
   "str",
   "ength</w>",
   "strength</w>"
  ],
  [
   "st",
   "ract</w>",
   "stract</w>"
  ],
  [
   "re",
   "fer",
   "refer"
  ],
  [
   "prote",
   "in</w>",
   "protein</w>"
  ],
  [
   "ordin",
   "ary</w>",
   "ordinary</w>"
  ],
  [
   "occur",
   "s</w>",
   "occurs</w>"
  ],
  [
   "materi",
   "als</w>",
   "materials</w>"
  ],
  [
   "manu",
   "fac",
   "manufac"
  ],
  [
   "m",
   "ine</w>",
   "mine</w>"
  ],
  [
   "m",
   "ed</w>",
   "med</w>"
  ],
  [
   "lik",
   "ely</w>",
   "likely</w>"
  ],
  [
   "i",
   "shed</w>",
   "ished</w>"
  ],
  [
   "gh",
   "um</w>",
   "ghum</w>"
  ],
  [
   "fur",
   "row</w>",
   "furrow</w>"
  ],
  [
   "for",
   "d",
   "ford"
  ],
  [
   "depend",
   "ent</w>",
   "dependent</w>"
  ],
  [
   "c",
   "ru",
   "cru"
  ],
  [
   "as",
   "i",
   "asi"
  ],
  [
   "am",
   "mon",
   "ammon"
  ],
  [
   "X",
   "X",
   "XX"
  ],
  [
   "S",
   "er",
   "Ser"
  ],
  [
   "I",
   "m",
   "Im"
  ],
  [
   "F",
   "O",
   "FO"
  ],
  [
   "Cot",
   "ton</w>",
   "Cotton</w>"
  ],
  [
   "Au",
   "g",
   "Aug"
  ],
  [
   "v",
   "ir",
   "vir"
  ],
  [
   "sup",
   "port</w>",
   "support</w>"
  ],
  [
   "succ",
   "ess",
   "success"
  ],
  [
   "st",
   "ory</w>",
   "story</w>"
  ],
  [
   "ser",
   "ved</w>",
   "served</w>"
  ],
  [
   "pr",
   "in",
   "prin"
  ],
  [
   "poin",
   "t</w>",
   "point</w>"
  ],
  [
   "n",
   "in",
   "nin"
  ],
  [
   "ing",
   "ly</w>",
   "ingly</w>"
  ],
  [
   "foo",
   "ds</w>",
   "foods</w>"
  ],
  [
   "exc",
   "ee",
   "excee"
  ],
  [
   "com",
   "b",
   "comb"
  ],
  [
   "ca",
   "uses</w>",
   "causes</w>"
  ],
  [
   "c",
   "ow",
   "cow"
  ],
  [
   "bar",
   "lie</w>",
   "barlie</w>"
  ],
  [
   "b",
   "al",
   "bal"
  ],
  [
   "ap",
   "par",
   "appar"
  ],
  [
   "U",
   "n",
   "Un"
  ],
  [
   "U",
   "R",
   "UR"
  ],
  [
   "Th",
   "omas</w>",
   "Thomas</w>"
  ],
  [
   "Soci",
   "ety</w>",
   "Society</w>"
  ],
  [
   "S",
   "om",
   "Som"
  ],
  [
   "P",
   "TER</w>",
   "PTER</w>"
  ],
  [
   "CHA",
   "PTER</w>",
   "CHAPTER</w>"
  ],
  [
   "°",
   "</w>",
   "°</w>"
  ],
  [
   "w",
   "om",
   "wom"
  ],
  [
   "val",
   "u",
   "valu"
  ],
  [
   "sp",
   "i",
   "spi"
  ],
  [
   "se",
   "par",
   "separ"
  ],
  [
   "s",
   "il",
   "sil"
  ],
  [
   "re",
   "t",
   "ret"
  ],
  [
   "ra",
   "ine</w>",
   "raine</w>"
  ],
  [
   "pr",
   "ou",
   "prou"
  ],
  [
   "op",
   "hy",
   "ophy"
  ],
  [
   "le",
   "vels</w>",
   "levels</w>"
  ],
  [
   "l",
   "ou",
   "lou"
  ],
  [
   "l",
   "er</w>",
   "ler</w>"
  ],
  [
   "k",
   "er",
   "ker"
  ],
  [
   "impro",
   "ve</w>",
   "improve</w>"
  ],
  [
   "i",
   "di",
   "idi"
  ],
  [
   "gather",
   "ing</w>",
   "gathering</w>"
  ],
  [
   "fin",
   "de</w>",
   "finde</w>"
  ],
  [
   "fig",
   "ure</w>",
   "figure</w>"
  ],
  [
   "estim",
   "ated</w>",
   "estimated</w>"
  ],
  [
   "ec",
   "osy",
   "ecosy"
  ],
  [
   "doub",
   "t</w>",
   "doubt</w>"
  ],
  [
   "d",
   "le</w>",
   "dle</w>"
  ],
  [
   "con",
   "tain</w>",
   "contain</w>"
  ],
  [
   "chan",
   "ged</w>",
   "changed</w>"
  ],
  [
   "beg",
   "in</w>",
   "begin</w>"
  ],
  [
   "at",
   "mosph",
   "atmosph"
  ],
  [
   "F",
   "rench</w>",
   "French</w>"
  ],
  [
   "5",
   "s</w>",
   "5s</w>"
  ],
  [
   "whe",
   "ther</w>",
   "whether</w>"
  ],
  [
   "w",
   "ent</w>",
   "went</w>"
  ],
  [
   "um",
   "_</w>",
   "um_</w>"
  ],
  [
   "u",
   "ght</w>",
   "ught</w>"
  ],
  [
   "th",
   "ought</w>",
   "thought</w>"
  ],
  [
   "t",
   "om",
   "tom"
  ],
  [
   "sp",
   "ra",
   "spra"
  ],
  [
   "ser",
   "ve</w>",
   "serve</w>"
  ],
  [
   "r",
   "y",
   "ry"
  ],
  [
   "r",
   "o</w>",
   "ro</w>"
  ],
  [
   "p",
   "ow",
   "pow"
  ],
  [
   "p",
   "ounds</w>",
   "pounds</w>"
  ],
  [
   "p",
   "at",
   "pat"
  ],
  [
   "op",
   "er",
   "oper"
  ],
  [
   "o",
   "ther",
   "other"
  ],
  [
   "n",
   "one</w>",
   "none</w>"
  ],
  [
   "mean",
   "ing</w>",
   "meaning</w>"
  ],
  [
   "me",
   "chan",
   "mechan"
  ],
  [
   "in",
   "vol",
   "invol"
  ],
  [
   "harvest",
   "ing</w>",
   "harvesting</w>"
  ],
  [
   "gi",
   "</w>",
   "gi</w>"
  ],
  [
   "fix",
   "ed</w>",
   "fixed</w>"
  ],
  [
   "fertili",
   "ty</w>",
   "fertility</w>"
  ],
  [
   "f",
   "le",
   "fle"
  ],
  [
   "es",
   "ides</w>",
   "esides</w>"
  ],
  [
   "enclos",
   "ure</w>",
   "enclosure</w>"
  ],
  [
   "en",
   "ted</w>",
   "ented</w>"
  ],
  [
   "dre",
   "n</w>",
   "dren</w>"
  ],
  [
   "dou",
   "ble</w>",
   "double</w>"
  ],
  [
   "di",
   "c",
   "dic"
  ],
  [
   "c",
   "oll",
   "coll"
  ],
  [
   "bran",
   "ches</w>",
   "branches</w>"
  ],
  [
   "be",
   "are</w>",
   "beare</w>"
  ],
  [
   "be",
   "an</w>",
   "bean</w>"
  ],
  [
   "V",
   "III</w>",
   "VIII</w>"
  ],
  [
   "Sep",
   "tem",
   "Septem"
  ],
  [
   "S",
   "k",
   "Sk"
  ],
  [
   "P",
   "h",
   "Ph"
  ],
  [
   "I",
   "bid</w>",
   "Ibid</w>"
  ],
  [
   "Christ",
   "mas</w>",
   "Christmas</w>"
  ],
  [
   "Bri",
   "tish</w>",
   "British</w>"
  ],
  [
   "$",
   "</w>",
   "$</w>"
  ],
  [
   "x",
   "x",
   "xx"
  ],
  [
   "w",
   "al",
   "wal"
  ],
  [
   "th",
   "ine</w>",
   "thine</w>"
  ],
  [
   "s",
   "ons</w>",
   "sons</w>"
  ],
  [
   "s",
   "le",
   "sle"
  ],
  [
   "resp",
   "on",
   "respon"
  ],
  [
   "ol",
   "s</w>",
   "ols</w>"
  ],
  [
   "l",
   "ength</w>",
   "length</w>"
  ],
  [
   "know",
   "ledge</w>",
   "knowledge</w>"
  ],
  [
   "in",
   "e",
   "ine"
  ],
  [
   "im",
   "pac",
   "impac"
  ],
  [
   "h",
   "im",
   "him"
  ],
  [
   "gra",
   "ve</w>",
   "grave</w>"
  ],
  [
   "d",
   "res",
   "dres"
  ],
  [
   "commer",
   "cial</w>",
   "commercial</w>"
  ],
  [
   "chan",
   "ges</w>",
   "changes</w>"
  ],
  [
   "be",
   "et",
   "beet"
  ],
  [
   "as",
   "s",
   "ass"
  ],
  [
   "_",
   "B",
   "_B"
  ],
  [
   "U",
   "S",
   "US"
  ],
  [
   "N",
   "it",
   "Nit"
  ],
  [
   "M",
   "iddle</w>",
   "Middle</w>"
  ],
  [
   "H",
   "O",
   "HO"
  ],
  [
   "F",
   "ran",
   "Fran"
  ],
  [
   "B",
   "i",
   "Bi"
  ],
  [
   "A",
   "pri",
   "Apri"
  ],
  [
   "8",
   "d</w>",
   "8d</w>"
  ],
  [
   "w",
   "an",
   "wan"
  ],
  [
   "ul",
   "ar</w>",
   "ular</w>"
  ],
  [
   "tim",
   "ber</w>",
   "timber</w>"
  ],
  [
   "sh",
   "are</w>",
   "share</w>"
  ],
  [
   "set",
   "ting</w>",
   "setting</w>"
  ],
  [
   "row",
   "ing</w>",
   "rowing</w>"
  ],
  [
   "re",
   "li",
   "reli"
  ],
  [
   "re",
   "ap",
   "reap"
  ],
  [
   "re",
   "_</w>",
   "re_</w>"
  ],
  [
   "pur",
   "ch",
   "purch"
  ],
  [
   "por",
   "ted</w>",
   "ported</w>"
  ],
  [
   "po",
   "ore</w>",
   "poore</w>"
  ],
  [
   "pl",
   "owing</w>",
   "plowing</w>"
  ],
  [
   "m",
   "os",
   "mos"
  ],
  [
   "la",
   "w",
   "law"
  ],
  [
   "in",
   "i",
   "ini"
  ],
  [
   "in",
   "f",
   "inf"
  ],
  [
   "har",
   "row</w>",
   "harrow</w>"
  ],
  [
   "h",
   "og",
   "hog"
  ],
  [
   "garden",
   "s</w>",
   "gardens</w>"
  ],
  [
   "fru",
   "it",
   "fruit"
  ],
  [
   "foll",
   "owed</w>",
   "followed</w>"
  ],
  [
   "fir",
   "e</w>",
   "fire</w>"
  ],
  [
   "er",
   "_</w>",
   "er_</w>"
  ],
  [
   "econom",
   "ic</w>",
   "economic</w>"
  ],
  [
   "di",
   "oxide</w>",
   "dioxide</w>"
  ],
  [
   "c",
   "ed</w>",
   "ced</w>"
  ],
  [
   "ab",
   "oue</w>",
   "aboue</w>"
  ],
  [
   "a",
   "k",
   "ak"
  ],
  [
   "_",
   "The</w>",
   "_The</w>"
  ],
  [
   "S",
   "ince</w>",
   "Since</w>"
  ],
  [
   "E",
   "2",
   "E2"
  ],
  [
   "18",
   "0",
   "180"
  ],
  [
   "wi",
   "d",
   "wid"
  ],
  [
   "wh",
   "om</w>",
   "whom</w>"
  ],
  [
   "war",
   "m</w>",
   "warm</w>"
  ],
  [
   "valu",
   "able</w>",
   "valuable</w>"
  ],
  [
   "un",
   "ity</w>",
   "unity</w>"
  ],
  [
   "tur",
   "ne</w>",
   "turne</w>"
  ],
  [
   "to",
   "x",
   "tox"
  ],
  [
   "th",
   "an",
   "than"
  ],
  [
   "seas",
   "ons</w>",
   "seasons</w>"
  ],
  [
   "requ",
   "ires</w>",
   "requires</w>"
  ],
  [
   "quar",
   "ters</w>",
   "quarters</w>"
  ],
  [
   "pro",
   "portion</w>",
   "proportion</w>"
  ],
  [
   "o",
   "v",
   "ov"
  ],
  [
   "nee",
   "ds</w>",
   "needs</w>"
  ],
  [
   "mer",
   "ly</w>",
   "merly</w>"
  ],
  [
   "le",
   "vel</w>",
   "level</w>"
  ],
  [
   "h",
   "ear",
   "hear"
  ],
  [
   "com",
   "ing</w>",
   "coming</w>"
  ],
  [
   "char",
   "ac",
   "charac"
  ],
  [
   "cer",
   "e",
   "cere"
  ],
  [
   "car",
   "ry</w>",
   "carry</w>"
  ],
  [
   "bel",
   "ow</w>",
   "below</w>"
  ],
  [
   "bel",
   "on",
   "belon"
  ],
  [
   "as",
   "hi",
   "ashi"
  ],
  [
   "ari",
   "es</w>",
   "aries</w>"
  ],
  [
   "R",
   "es",
   "Res"
  ],
  [
   "P",
   "i",
   "Pi"
  ],
  [
   "In",
   "ter",
   "Inter"
  ],
  [
   "F",
   "ood</w>",
   "Food</w>"
  ],
  [
   "E",
   "A",
   "EA"
  ],
  [
   "u",
   "d",
   "ud"
  ],
  [
   "ta",
   "king</w>",
   "taking</w>"
  ],
  [
   "t",
   "ten</w>",
   "tten</w>"
  ],
  [
   "sug",
   "g",
   "sugg"
  ],
  [
   "st",
   "ates</w>",
   "states</w>"
  ],
  [
   "pleas",
   "ure</w>",
   "pleasure</w>"
  ],
  [
   "pi",
   "ece</w>",
   "piece</w>"
  ],
  [
   "own",
   "ers</w>",
   "owners</w>"
  ],
  [
   "other",
   "wise</w>",
   "otherwise</w>"
  ],
  [
   "m",
   "y",
   "my"
  ],
  [
   "leg",
   "umes</w>",
   "legumes</w>"
  ],
  [
   "l",
   "ast",
   "last"
  ],
  [
   "huswi",
   "fe</w>",
   "huswife</w>"
  ],
  [
   "hol",
   "ding</w>",
   "holding</w>"
  ],
  [
   "g",
   "all",
   "gall"
  ],
  [
   "est",
   "er</w>",
   "ester</w>"
  ],
  [
   "ear",
   "li",
   "earli"
  ],
  [
   "e",
   "fe</w>",
   "efe</w>"
  ],
  [
   "drain",
   "age</w>",
   "drainage</w>"
  ],
  [
   "dra",
   "w</w>",
   "draw</w>"
  ],
  [
   "de",
   "fin",
   "defin"
  ],
  [
   "d",
   "ation</w>",
   "dation</w>"
  ],
  [
   "con",
   "cer",
   "concer"
  ],
  [
   "ch",
   "am",
   "cham"
  ],
  [
   "c",
   "ir",
   "cir"
  ],
  [
   "ar",
   "ti",
   "arti"
  ],
  [
   "ab",
   "und",
   "abund"
  ],
  [
   "W",
   "al",
   "Wal"
  ],
  [
   "Suff",
   "olk</w>",
   "Suffolk</w>"
  ],
  [
   "N",
   "O",
   "NO"
  ],
  [
   "F",
   "A",
   "FA"
  ],
  [
   "Bar",
   "ly</w>",
   "Barly</w>"
  ],
  [
   "uri",
   "es</w>",
   "uries</w>"
  ],
  [
   "ur",
   "y</w>",
   "ury</w>"
  ],
  [
   "tic",
   "ally</w>",
   "tically</w>"
  ],
  [
   "ta",
   "x",
   "tax"
  ],
  [
   "t",
   "ex",
   "tex"
  ],
  [
   "requ",
   "ire</w>",
   "require</w>"
  ],
  [
   "pl",
   "ot</w>",
   "plot</w>"
  ],
  [
   "o",
   "l</w>",
   "ol</w>"
  ],
  [
   "natur",
   "ally</w>",
   "naturally</w>"
  ],
  [
   "in",
   "stead</w>",
   "instead</w>"
  ],
  [
   "in",
   "ess</w>",
   "iness</w>"
  ],
  [
   "har",
   "uest</w>",
   "haruest</w>"
  ],
  [
   "h",
   "an",
   "han"
  ],
  [
   "go",
   "ver",
   "gover"
  ],
  [
   "fici",
   "al</w>",
   "ficial</w>"
  ],
  [
   "ex",
   "port</w>",
   "export</w>"
  ],
  [
   "est",
   "ab",
   "estab"
  ],
  [
   "enc",
   "ed</w>",
   "enced</w>"
  ],
  [
   "dri",
   "e</w>",
   "drie</w>"
  ],
  [
   "dem",
   "and</w>",
   "demand</w>"
  ],
  [
   "d",
   "ust</w>",
   "dust</w>"
  ],
  [
   "com",
   "modi",
   "commodi"
  ],
  [
   "chil",
   "dren</w>",
   "children</w>"
  ],
  [
   "ch",
   "ur",
   "chur"
  ],
  [
   "care",
   "fully</w>",
   "carefully</w>"
  ],
  [
   "c",
   "op",
   "cop"
  ],
  [
   "ar",
   "es</w>",
   "ares</w>"
  ],
  [
   "al",
   "ready</w>",
   "already</w>"
  ],
  [
   "Par",
   "liam",
   "Parliam"
  ],
  [
   "wor",
   "l",
   "worl"
  ],
  [
   "wi",
   "l",
   "wil"
  ],
  [
   "tol",
   "er",
   "toler"
  ],
  [
   "struc",
   "tion</w>",
   "struction</w>"
  ],
  [
   "st",
   "ly</w>",
   "stly</w>"
  ],
  [
   "st",
   "er",
   "ster"
  ],
  [
   "s",
   "it",
   "sit"
  ],
  [
   "s",
   "ent</w>",
   "sent</w>"
  ],
  [
   "re",
   "mem",
   "remem"
  ],
  [
   "re",
   "comm",
   "recomm"
  ],
  [
   "ra",
   "ised</w>",
   "raised</w>"
  ],
  [
   "produc",
   "ing</w>",
   "producing</w>"
  ],
  [
   "pres",
   "sion</w>",
   "pression</w>"
  ],
  [
   "pot",
   "ato</w>",
   "potato</w>"
  ],
  [
   "pe",
   "as",
   "peas"
  ],
  [
   "p",
   "it",
   "pit"
  ],
  [
   "p",
   "in",
   "pin"
  ],
  [
   "p",
   "ical</w>",
   "pical</w>"
  ],
  [
   "on",
   "_</w>",
   "on_</w>"
  ],
  [
   "o",
   "gen",
   "ogen"
  ],
  [
   "i",
   "ron</w>",
   "iron</w>"
  ],
  [
   "ho",
   "p</w>",
   "hop</w>"
  ],
  [
   "g",
   "oo",
   "goo"
  ],
  [
   "fun",
   "gi</w>",
   "fungi</w>"
  ],
  [
   "ford",
   "shire</w>",
   "fordshire</w>"
  ],
  [
   "for",
   "merly</w>",
   "formerly</w>"
  ],
  [
   "fam",
   "ous</w>",
   "famous</w>"
  ],
  [
   "experi",
   "ence</w>",
   "experience</w>"
  ],
  [
   "col",
   "our</w>",
   "colour</w>"
  ],
  [
   "cl",
   "ass</w>",
   "class</w>"
  ],
  [
   "cl",
   "a",
   "cla"
  ],
  [
   "ad",
   "ded</w>",
   "added</w>"
  ],
  [
   "ab",
   "stract</w>",
   "abstract</w>"
  ],
  [
   "a",
   "e</w>",
   "ae</w>"
  ],
  [
   "X",
   "</w>",
   "X</w>"
  ],
  [
   "W",
   "ater</w>",
   "Water</w>"
  ],
  [
   "G",
   "e",
   "Ge"
  ],
  [
   "E",
   "gy",
   "Egy"
  ],
  [
   "é",
   "e</w>",
   "ée</w>"
  ],
  [
   "x",
   "im",
   "xim"
  ],
  [
   "um",
   "e</w>",
   "ume</w>"
  ],
  [
   "tran",
   "spor",
   "transpor"
  ],
  [
   "tr",
   "ou",
   "trou"
  ],
  [
   "te",
   "th</w>",
   "teth</w>"
  ],
  [
   "t",
   "ell</w>",
   "tell</w>"
  ],
  [
   "ra",
   "in</w>",
   "rain</w>"
  ],
  [
   "par",
   "ish</w>",
   "parish</w>"
  ],
  [
   "ow",
   "es</w>",
   "owes</w>"
  ],
  [
   "o",
   "gra",
   "ogra"
  ],
  [
   "main",
   "ly</w>",
   "mainly</w>"
  ],
  [
   "lar",
   "v",
   "larv"
  ],
  [
   "i",
   "al</w>",
   "ial</w>"
  ],
  [
   "hi",
   "story</w>",
   "history</w>"
  ],
  [
   "hel",
   "pe</w>",
   "helpe</w>"
  ],
  [
   "gr",
   "ou",
   "grou"
  ],
  [
   "g",
   "ot</w>",
   "got</w>"
  ],
  [
   "f",
   "ashi",
   "fashi"
  ],
  [
   "exc",
   "ep",
   "excep"
  ],
  [
   "ent",
   "eenth</w>",
   "enteenth</w>"
  ],
  [
   "en",
   "ter</w>",
   "enter</w>"
  ],
  [
   "eig",
   "n</w>",
   "eign</w>"
  ],
  [
   "dr",
   "ought</w>",
   "drought</w>"
  ],
  [
   "develop",
   "ing</w>",
   "developing</w>"
  ],
  [
   "cust",
   "om</w>",
   "custom</w>"
  ],
  [
   "bu",
   "t",
   "but"
  ],
  [
   "au",
   "gh",
   "augh"
  ],
  [
   "ag",
   "re",
   "agre"
  ],
  [
   "ag",
   "aine</w>",
   "againe</w>"
  ],
  [
   "ac",
   "ross</w>",
   "across</w>"
  ],
  [
   "Oc",
   "to",
   "Octo"
  ],
  [
   "J",
   "</w>",
   "J</w>"
  ],
  [
   "H",
   "ere",
   "Here"
  ],
  [
   "E",
   "R</w>",
   "ER</w>"
  ],
  [
   "9",
   "8</w>",
   "98</w>"
  ],
  [
   "wor",
   "m</w>",
   "worm</w>"
  ],
  [
   "ta",
   "tions</w>",
   "tations</w>"
  ],
  [
   "sup",
   "p",
   "supp"
  ],
  [
   "st",
   "e</w>",
   "ste</w>"
  ],
  [
   "so",
   "on",
   "soon"
  ],
  [
   "sh",
   "ows</w>",
   "shows</w>"
  ],
  [
   "sel",
   "ection</w>",
   "selection</w>"
  ],
  [
   "se",
   "uer",
   "seuer"
  ],
  [
   "ro",
   "t</w>",
   "rot</w>"
  ],
  [
   "r",
   "in",
   "rin"
  ],
  [
   "pl",
   "um",
   "plum"
  ],
  [
   "pl",
   "as",
   "plas"
  ],
  [
   "p",
   "id",
   "pid"
  ],
  [
   "ll",
   "ed</w>",
   "lled</w>"
  ],
  [
   "le",
   "t",
   "let"
  ],
  [
   "import",
   "ance</w>",
   "importance</w>"
  ],
  [
   "ic",
   "t</w>",
   "ict</w>"
  ],
  [
   "h",
   "ands</w>",
   "hands</w>"
  ],
  [
   "gre",
   "en",
   "green"
  ],
  [
   "fre",
   "e",
   "free"
  ],
  [
   "e",
   "dition</w>",
   "edition</w>"
  ],
  [
   "bar",
   "ke</w>",
   "barke</w>"
  ],
  [
   "b",
   "ing</w>",
   "bing</w>"
  ],
  [
   "ap",
   "art</w>",
   "apart</w>"
  ],
  [
   "an",
   "u",
   "anu"
  ],
  [
   "ad",
   "op",
   "adop"
  ],
  [
   "I",
   "r",
   "Ir"
  ],
  [
   "H",
   "en</w>",
   "Hen</w>"
  ],
  [
   "F",
   "ir",
   "Fir"
  ],
  [
   "CO",
   "2</w>",
   "CO2</w>"
  ],
  [
   "w",
   "ine</w>",
   "wine</w>"
  ],
  [
   "t",
   "an",
   "tan"
  ],
  [
   "st",
   "and",
   "stand"
  ],
  [
   "rese",
   "ar",
   "resear"
  ],
  [
   "r",
   "al",
   "ral"
  ],
  [
   "prob",
   "le",
   "proble"
  ],
  [
   "perf",
   "ect</w>",
   "perfect</w>"
  ],
  [
   "ough",
   "ly</w>",
   "oughly</w>"
  ],
  [
   "ni",
   "qu",
   "niqu"
  ],
  [
   "mead",
   "ow</w>",
   "meadow</w>"
  ],
  [
   "lic",
   "y</w>",
   "licy</w>"
  ],
  [
   "ill",
   "s</w>",
   "ills</w>"
  ],
  [
   "il",
   "ed</w>",
   "iled</w>"
  ],
  [
   "i",
   "er</w>",
   "ier</w>"
  ],
  [
   "hab",
   "it",
   "habit"
  ],
  [
   "h",
   "ot</w>",
   "hot</w>"
  ],
  [
   "fro",
   "st</w>",
   "frost</w>"
  ],
  [
   "f",
   "er</w>",
   "fer</w>"
  ],
  [
   "evid",
   "ence</w>",
   "evidence</w>"
  ],
  [
   "eu",
   "en</w>",
   "euen</w>"
  ],
  [
   "est",
   "ate</w>",
   "estate</w>"
  ],
  [
   "enni",
   "al</w>",
   "ennial</w>"
  ],
  [
   "eigh",
   "teenth</w>",
   "eighteenth</w>"
  ],
  [
   "eff",
   "iciency</w>",
   "efficiency</w>"
  ],
  [
   "dri",
   "p</w>",
   "drip</w>"
  ],
  [
   "di",
   "u",
   "diu"
  ],
  [
   "dec",
   "rease</w>",
   "decrease</w>"
  ],
  [
   "cro",
   "s",
   "cros"
  ],
  [
   "c",
   "ity</w>",
   "city</w>"
  ],
  [
   "ati",
   "vely</w>",
   "atively</w>"
  ],
  [
   "an",
   "es</w>",
   "anes</w>"
  ],
  [
   "ac",
   "tion</w>",
   "action</w>"
  ],
  [
   "a",
   "ue</w>",
   "aue</w>"
  ],
  [
   "Wor",
   "ld</w>",
   "World</w>"
  ],
  [
   "Win",
   "ter</w>",
   "Winter</w>"
  ],
  [
   "Whi",
   "le</w>",
   "While</w>"
  ],
  [
   "Wh",
   "o</w>",
   "Who</w>"
  ],
  [
   "S",
   "O",
   "SO"
  ],
  [
   "Mai",
   "ze</w>",
   "Maize</w>"
  ],
  [
   "I",
   "t",
   "It"
  ],
  [
   "H",
   "e",
   "He"
  ],
  [
   "Fir",
   "st</w>",
   "First</w>"
  ],
  [
   "3",
   "00</w>",
   "300</w>"
  ],
  [
   "w",
   "all</w>",
   "wall</w>"
  ],
  [
   "us",
   "e",
   "use"
  ],
  [
   "uri",
   "ous</w>",
   "urious</w>"
  ],
  [
   "tur",
   "nips</w>",
   "turnips</w>"
  ],
  [
   "set",
   "t",
   "sett"
  ],
  [
   "s",
   "tic",
   "stic"
  ],
  [
   "s",
   "li",
   "sli"
  ],
  [
   "re",
   "main",
   "remain"
  ],
  [
   "r",
   "ural</w>",
   "rural</w>"
  ],
  [
   "pollin",
   "ators</w>",
   "pollinators</w>"
  ],
  [
   "oun",
   "ded</w>",
   "ounded</w>"
  ],
  [
   "oo",
   "th</w>",
   "ooth</w>"
  ],
  [
   "ol",
   "de</w>",
   "olde</w>"
  ],
  [
   "n",
   "al</w>",
   "nal</w>"
  ],
  [
   "m",
   "bl",
   "mbl"
  ],
  [
   "is",
   "su",
   "issu"
  ],
  [
   "fix",
   "ation</w>",
   "fixation</w>"
  ],
  [
   "f",
   "at",
   "fat"
  ],
  [
   "est",
   "ed</w>",
   "ested</w>"
  ],
  [
   "er",
   "es</w>",
   "eres</w>"
  ],
  [
   "ear",
   "s</w>",
   "ears</w>"
  ],
  [
   "ear",
   "es</w>",
   "eares</w>"
  ],
  [
   "deri",
   "ved</w>",
   "derived</w>"
  ],
  [
   "bene",
   "fit</w>",
   "benefit</w>"
  ],
  [
   "b",
   "ag",
   "bag"
  ],
  [
   "al",
   "ong</w>",
   "along</w>"
  ],
  [
   "ain",
   "s</w>",
   "ains</w>"
  ],
  [
   "ab",
   "sor",
   "absor"
  ],
  [
   "_",
   "History</w>",
   "_History</w>"
  ],
  [
   "W",
   "ar",
   "War"
  ],
  [
   "T",
   "ake</w>",
   "Take</w>"
  ],
  [
   "P",
   "oll",
   "Poll"
  ],
  [
   "D",
   "r</w>",
   "Dr</w>"
  ],
  [
   "Com",
   "m",
   "Comm"
  ],
  [
   "6",
   "s</w>",
   "6s</w>"
  ],
  [
   "4",
   "s</w>",
   "4s</w>"
  ],
  [
   "win",
   "d",
   "wind"
  ],
  [
   "what",
   "soeuer</w>",
   "whatsoeuer</w>"
  ],
  [
   "v",
   "ille",
   "ville"
  ],
  [
   "u",
   "pi",
   "upi"
  ],
  [
   "tic",
   "le</w>",
   "ticle</w>"
  ],
  [
   "su",
   "per",
   "super"
  ],
  [
   "sti",
   "t",
   "stit"
  ],
  [
   "ro",
   "te</w>",
   "rote</w>"
  ],
  [
   "quanti",
   "ty</w>",
   "quantity</w>"
  ],
  [
   "proper",
   "ties</w>",
   "properties</w>"
  ],
  [
   "p",
   "ec",
   "pec"
  ],
  [
   "origin",
   "al</w>",
   "original</w>"
  ],
  [
   "on",
   "g",
   "ong"
  ],
  [
   "occ",
   "upi",
   "occupi"
  ],
  [
   "oc",
   "ks</w>",
   "ocks</w>"
  ],
  [
   "n",
   "a",
   "na"
  ],
  [
   "mol",
   "ec",
   "molec"
  ],
  [
   "mach",
   "ine</w>",
   "machine</w>"
  ],
  [
   "it",
   "al</w>",
   "ital</w>"
  ],
  [
   "id",
   "ing</w>",
   "iding</w>"
  ],
  [
   "hun",
   "dred</w>",
   "hundred</w>"
  ],
  [
   "h",
   "a</w>",
   "ha</w>"
  ],
  [
   "f",
   "ast",
   "fast"
  ],
  [
   "et",
   "ting</w>",
   "etting</w>"
  ],
  [
   "dri",
   "ed</w>",
   "dried</w>"
  ],
  [
   "descri",
   "bed</w>",
   "described</w>"
  ],
  [
   "de",
   "ath</w>",
   "death</w>"
  ],
  [
   "dan",
   "ger</w>",
   "danger</w>"
  ],
  [
   "d",
   "ges</w>",
   "dges</w>"
  ],
  [
   "clo",
   "th</w>",
   "cloth</w>"
  ],
  [
   "ch",
   "er</w>",
   "cher</w>"
  ],
  [
   "car",
   "ried</w>",
   "carried</w>"
  ],
  [
   "car",
   "bo",
   "carbo"
  ],
  [
   "bor",
   "ne</w>",
   "borne</w>"
  ],
  [
   "bio",
   "diversity</w>",
   "biodiversity</w>"
  ],
  [
   "ati",
   "onal</w>",
   "ational</w>"
  ],
  [
   "_",
   "A",
   "_A"
  ],
  [
   "T",
   "ur",
   "Tur"
  ],
  [
   "Pro",
   "m",
   "Prom"
  ],
  [
   "In",
   "du",
   "Indu"
  ],
  [
   "Hop",
   "pes</w>",
   "Hoppes</w>"
  ],
  [
   "Ac",
   "cording</w>",
   "According</w>"
  ],
  [
   "wid",
   "ely</w>",
   "widely</w>"
  ],
  [
   "wee",
   "k</w>",
   "week</w>"
  ],
  [
   "veget",
   "able</w>",
   "vegetable</w>"
  ],
  [
   "tw",
   "el",
   "twel"
  ],
  [
   "tech",
   "niqu",
   "techniqu"
  ],
  [
   "stri",
   "bu",
   "stribu"
  ],
  [
   "stor",
   "age</w>",
   "storage</w>"
  ],
  [
   "squ",
   "are</w>",
   "square</w>"
  ],
  [
   "rain",
   "fall</w>",
   "rainfall</w>"
  ],
  [
   "quick",
   "ly</w>",
   "quickly</w>"
  ],
  [
   "pl",
   "ease</w>",
   "please</w>"
  ],
  [
   "m",
   "id",
   "mid"
  ],
  [
   "li",
   "qu",
   "liqu"
  ],
  [
   "l",
   "ow",
   "low"
  ],
  [
   "k",
   "et</w>",
   "ket</w>"
  ],
  [
   "j",
   "o",
   "jo"
  ],
  [
   "in",
   "v",
   "inv"
  ],
  [
   "ic",
   "ally</w>",
   "ically</w>"
  ],
  [
   "grow",
   "s</w>",
   "grows</w>"
  ],
  [
   "gh",
   "am</w>",
   "gham</w>"
  ],
  [
   "for",
   "est</w>",
   "forest</w>"
  ],
  [
   "evol",
   "ution</w>",
   "evolution</w>"
  ],
  [
   "ec",
   "es</w>",
   "eces</w>"
  ],
  [
   "e",
   "aten</w>",
   "eaten</w>"
  ],
  [
   "di",
   "v",
   "div"
  ],
  [
   "destro",
   "y</w>",
   "destroy</w>"
  ],
  [
   "con",
   "v",
   "conv"
  ],
  [
   "c",
   "all</w>",
   "call</w>"
  ],
  [
   "b",
   "ly</w>",
   "bly</w>"
  ],
  [
   "anci",
   "ent</w>",
   "ancient</w>"
  ],
  [
   "M",
   "ost</w>",
   "Most</w>"
  ],
  [
   "K",
   "ing</w>",
   "King</w>"
  ],
  [
   "Gre",
   "at</w>",
   "Great</w>"
  ],
  [
   "E",
   "S</w>",
   "ES</w>"
  ],
  [
   "B",
   "er",
   "Ber"
  ],
  [
   "A",
   "d",
   "Ad"
  ],
  [
   "u",
   "</w>",
   "u</w>"
  ],
  [
   "ty",
   "pes</w>",
   "types</w>"
  ],
  [
   "tiv",
   "ely</w>",
   "tively</w>"
  ],
  [
   "sti",
   "r",
   "stir"
  ],
  [
   "st",
   "able</w>",
   "stable</w>"
  ],
  [
   "sim",
   "ple</w>",
   "simple</w>"
  ],
  [
   "sev",
   "enteenth</w>",
   "seventeenth</w>"
  ],
  [
   "re",
   "cor",
   "recor"
  ],
  [
   "ra",
   "ble</w>",
   "rable</w>"
  ],
  [
   "pro",
   "m",
   "prom"
  ],
  [
   "pos",
   "es</w>",
   "poses</w>"
  ],
  [
   "phosph",
   "ate</w>",
   "phosphate</w>"
  ],
  [
   "pas",
   "sed</w>",
   "passed</w>"
  ],
  [
   "particul",
   "arly</w>",
   "particularly</w>"
  ],
  [
   "p",
   "H</w>",
   "pH</w>"
  ],
  [
   "on",
   "ne</w>",
   "onne</w>"
  ],
  [
   "mean",
   "es</w>",
   "meanes</w>"
  ],
  [
   "l",
   "oue</w>",
   "loue</w>"
  ],
  [
   "k",
   "el",
   "kel"
  ],
  [
   "increas",
   "es</w>",
   "increases</w>"
  ],
  [
   "hy",
   "dr",
   "hydr"
  ],
  [
   "hou",
   "se",
   "house"
  ],
  [
   "hol",
   "ders</w>",
   "holders</w>"
  ],
  [
   "ho",
   "g</w>",
   "hog</w>"
  ],
  [
   "he",
   "e</w>",
   "hee</w>"
  ],
  [
   "h",
   "ur",
   "hur"
  ],
  [
   "h",
   "eat</w>",
   "heat</w>"
  ],
  [
   "gr",
   "asses</w>",
   "grasses</w>"
  ],
  [
   "gi",
   "es</w>",
   "gies</w>"
  ],
  [
   "fee",
   "ding</w>",
   "feeding</w>"
  ],
  [
   "fact",
   "ors</w>",
   "factors</w>"
  ],
  [
   "est",
   "ates</w>",
   "estates</w>"
  ],
  [
   "esh",
   "</w>",
   "esh</w>"
  ],
  [
   "ent",
   "ing</w>",
   "enting</w>"
  ],
  [
   "enc",
   "oura",
   "encoura"
  ],
  [
   "di",
   "stribu",
   "distribu"
  ],
  [
   "di",
   "ly</w>",
   "dily</w>"
  ],
  [
   "da",
   "iry</w>",
   "dairy</w>"
  ],
  [
   "cor",
   "por",
   "corpor"
  ],
  [
   "con",
   "tains</w>",
   "contains</w>"
  ],
  [
   "con",
   "taining</w>",
   "containing</w>"
  ],
  [
   "c",
   "o</w>",
   "co</w>"
  ],
  [
   "appear",
   "s</w>",
   "appears</w>"
  ],
  [
   "ab",
   "ro",
   "abro"
  ],
  [
   "V",
   "I</w>",
   "VI</w>"
  ],
  [
   "Th",
   "or",
   "Thor"
  ],
  [
   "T",
   "S</w>",
   "TS</w>"
  ],
  [
   "S",
   "ur",
   "Sur"
  ],
  [
   "P",
   "O",
   "PO"
  ],
  [
   "L",
   "O",
   "LO"
  ],
  [
   "Ir",
   "rig",
   "Irrig"
  ],
  [
   "Hen",
   "ry</w>",
   "Henry</w>"
  ],
  [
   "Com",
   "mer",
   "Commer"
  ],
  [
   "C",
   "a",
   "Ca"
  ],
  [
   "ver",
   "se</w>",
   "verse</w>"
  ],
  [
   "uri",
   "ty</w>",
   "urity</w>"
  ],
  [
   "u",
   "ell</w>",
   "uell</w>"
  ],
  [
   "tur",
   "es</w>",
   "tures</w>"
  ],
  [
   "t",
   "est</w>",
   "test</w>"
  ],
  [
   "stat",
   "ute</w>",
   "statute</w>"
  ],
  [
   "sour",
   "ces</w>",
   "sources</w>"
  ],
  [
   "so",
   "li",
   "soli"
  ],
  [
   "seuer",
   "all</w>",
   "seuerall</w>"
  ],
  [
   "s",
   "au",
   "sau"
  ],
  [
   "res",
   "ources</w>",
   "resources</w>"
  ],
  [
   "re",
   "gar",
   "regar"
  ],
  [
   "r",
   "al</w>",
   "ral</w>"
  ],
  [
   "quanti",
   "ties</w>",
   "quantities</w>"
  ],
  [
   "q",
   "</w>",
   "q</w>"
  ],
  [
   "prov",
   "ided</w>",
   "provided</w>"
  ],
  [
   "pro",
   "gress</w>",
   "progress</w>"
  ],
  [
   "pp",
   "ed</w>",
   "pped</w>"
  ],
  [
   "ol",
   "o",
   "olo"
  ],
  [
   "n",
   "ot",
   "not"
  ],
  [
   "miner",
   "al</w>",
   "mineral</w>"
  ],
  [
   "m",
   "el",
   "mel"
  ],
  [
   "lea",
   "ue</w>",
   "leaue</w>"
  ],
  [
   "le",
   "ad</w>",
   "lead</w>"
  ],
  [
   "it",
   "able</w>",
   "itable</w>"
  ],
  [
   "ig",
   "n</w>",
   "ign</w>"
  ],
  [
   "hu",
   "mans</w>",
   "humans</w>"
  ],
  [
   "gent",
   "le",
   "gentle"
  ],
  [
   "for",
   "eign</w>",
   "foreign</w>"
  ],
  [
   "descri",
   "ption</w>",
   "description</w>"
  ],
  [
   "cont",
   "r",
   "contr"
  ],
  [
   "col",
   "on",
   "colon"
  ],
  [
   "char",
   "ge</w>",
   "charge</w>"
  ],
  [
   "c",
   "oo",
   "coo"
  ],
  [
   "c",
   "ases</w>",
   "cases</w>"
  ],
  [
   "ast",
   "s</w>",
   "asts</w>"
  ],
  [
   "as",
   "soci",
   "associ"
  ],
  [
   "applic",
   "ation</w>",
   "application</w>"
  ],
  [
   "Whi",
   "ch</w>",
   "Which</w>"
  ],
  [
   "W",
   "est</w>",
   "West</w>"
  ],
  [
   "U",
   "ni",
   "Uni"
  ],
  [
   "U",
   "</w>",
   "U</w>"
  ],
  [
   "S",
   "al",
   "Sal"
  ],
  [
   "Prom",
   "pt</w>",
   "Prompt</w>"
  ],
  [
   "G",
   "ar",
   "Gar"
  ],
  [
   "E",
   "ast</w>",
   "East</w>"
  ],
  [
   "D",
   "o</w>",
   "Do</w>"
  ],
  [
   "D",
   "es",
   "Des"
  ],
  [
   "C",
   "at",
   "Cat"
  ],
  [
   "A",
   "s",
   "As"
  ],
  [
   "A",
   "G",
   "AG"
  ],
  [
   "3",
   "s</w>",
   "3s</w>"
  ],
  [
   "ée",
   "pe</w>",
   "éepe</w>"
  ],
  [
   "wor",
   "kers</w>",
   "workers</w>"
  ],
  [
   "woo",
   "de</w>",
   "woode</w>"
  ],
  [
   "th",
   "in</w>",
   "thin</w>"
  ],
  [
   "soon",
   "er</w>",
   "sooner</w>"
  ],
  [
   "sh",
   "e",
   "she"
  ],
  [
   "proc",
   "esses</w>",
   "processes</w>"
  ],
  [
   "no",
   "ther</w>",
   "nother</w>"
  ],
  [
   "m",
   "idd",
   "midd"
  ],
  [
   "loc",
   "al</w>",
   "local</w>"
  ],
  [
   "land",
   "lords</w>",
   "landlords</w>"
  ],
  [
   "im",
   "p</w>",
   "imp</w>"
  ],
  [
   "i",
   "v</w>",
   "iv</w>"
  ],
  [
   "hal",
   "fe</w>",
   "halfe</w>"
  ],
  [
   "gh",
   "ts</w>",
   "ghts</w>"
  ],
  [
   "f",
   "ol",
   "fol"
  ],
  [
   "ex",
   "tre",
   "extre"
  ],
  [
   "ex",
   "ist",
   "exist"
  ],
  [
   "en",
   "ing</w>",
   "ening</w>"
  ],
  [
   "di",
   "t",
   "dit"
  ],
  [
   "di",
   "ed</w>",
   "died</w>"
  ],
  [
   "des",
   "er",
   "deser"
  ],
  [
   "consider",
   "able</w>",
   "considerable</w>"
  ],
  [
   "bu",
   "y</w>",
   "buy</w>"
  ],
  [
   "bree",
   "ds</w>",
   "breeds</w>"
  ],
  [
   "brea",
   "king</w>",
   "breaking</w>"
  ],
  [
   "bar",
   "k</w>",
   "bark</w>"
  ],
  [
   "b",
   "ook</w>",
   "book</w>"
  ],
  [
   "ay",
   "es</w>",
   "ayes</w>"
  ],
  [
   "ari",
   "ly</w>",
   "arily</w>"
  ],
  [
   "af",
   "ter",
   "after"
  ],
  [
   "ad",
   "ing</w>",
   "ading</w>"
  ],
  [
   "ab",
   "b",
   "abb"
  ],
  [
   "Par",
   "v</w>",
   "Parv</w>"
  ],
  [
   "M",
   "u",
   "Mu"
  ],
  [
   "M",
   "or",
   "Mor"
  ],
  [
   "L",
   "y",
   "Ly"
  ],
  [
   "L",
   "inc",
   "Linc"
  ],
  [
   "Husband",
   "ry</w>",
   "Husbandry</w>"
  ],
  [
   "Com",
   "mis",
   "Commis"
  ],
  [
   "C",
   "al",
   "Cal"
  ],
  [
   "C",
   "E</w>",
   "CE</w>"
  ],
  [
   "win",
   "d</w>",
   "wind</w>"
  ],
  [
   "war",
   "ds</w>",
   "wards</w>"
  ],
  [
   "vill",
   "age</w>",
   "village</w>"
  ],
  [
   "vi",
   "du",
   "vidu"
  ],
  [
   "u",
   "en</w>",
   "uen</w>"
  ],
  [
   "swee",
   "t</w>",
   "sweet</w>"
  ],
  [
   "stal",
   "ks</w>",
   "stalks</w>"
  ],
  [
   "st",
   "ated</w>",
   "stated</w>"
  ],
  [
   "small",
   "er</w>",
   "smaller</w>"
  ],
  [
   "ri",
   "son</w>",
   "rison</w>"
  ],
  [
   "ri",
   "c</w>",
   "ric</w>"
  ],
  [
   "rel",
   "ated</w>",
   "related</w>"
  ],
  [
   "read",
   "ing</w>",
   "reading</w>"
  ],
  [
   "re",
   "d",
   "red"
  ],
  [
   "ra",
   "w</w>",
   "raw</w>"
  ],
  [
   "ra",
   "pid",
   "rapid"
  ],
  [
   "rapid",
   "ly</w>",
   "rapidly</w>"
  ],
  [
   "produc",
   "tive</w>",
   "productive</w>"
  ],
  [
   "pot",
   "ential</w>",
   "potential</w>"
  ],
  [
   "pi",
   "on</w>",
   "pion</w>"
  ],
  [
   "ob",
   "ac",
   "obac"
  ],
  [
   "ne",
   "y</w>",
   "ney</w>"
  ],
  [
   "mon",
   "ths</w>",
   "months</w>"
  ],
  [
   "m",
   "iddle</w>",
   "middle</w>"
  ],
  [
   "m",
   "ers</w>",
   "mers</w>"
  ],
  [
   "lab",
   "or</w>",
   "labor</w>"
  ],
  [
   "is",
   "on</w>",
   "ison</w>"
  ],
  [
   "in",
   "k",
   "ink"
  ],
  [
   "in",
   "d",
   "ind"
  ],
  [
   "ic",
   "ke</w>",
   "icke</w>"
  ],
  [
   "husb",
   "and</w>",
   "husband</w>"
  ],
  [
   "harvest",
   "ed</w>",
   "harvested</w>"
  ],
  [
   "foo",
   "t</w>",
   "foot</w>"
  ],
  [
   "ess",
   "ing</w>",
   "essing</w>"
  ],
  [
   "di",
   "stric",
   "distric"
  ],
  [
   "dec",
   "reas",
   "decreas"
  ],
  [
   "cro",
   "pping</w>",
   "cropping</w>"
  ],
  [
   "c",
   "le</w>",
   "cle</w>"
  ],
  [
   "bo",
   "ard</w>",
   "board</w>"
  ],
  [
   "al",
   "thy</w>",
   "althy</w>"
  ],
  [
   "ain",
   "t</w>",
   "aint</w>"
  ],
  [
   "adap",
   "ted</w>",
   "adapted</w>"
  ],
  [
   "ac",
   "tivity</w>",
   "activity</w>"
  ],
  [
   "_",
   "P",
   "_P"
  ],
  [
   "Pl",
   "ants</w>",
   "Plants</w>"
  ],
  [
   "M",
   "S</w>",
   "MS</w>"
  ],
  [
   "Linc",
   "ol",
   "Lincol"
  ],
  [
   "Irrig",
   "ation</w>",
   "Irrigation</w>"
  ],
  [
   "I",
   "N</w>",
   "IN</w>"
  ],
  [
   "Har",
   "rison</w>",
   "Harrison</w>"
  ],
  [
   "F",
   "er",
   "Fer"
  ],
  [
   "E",
   "E",
   "EE"
  ],
  [
   "Aug",
   "ust</w>",
   "August</w>"
  ],
  [
   "A",
   "nother</w>",
   "Another</w>"
  ],
  [
   "A",
   "m",
   "Am"
  ],
  [
   "w",
   "ar</w>",
   "war</w>"
  ],
  [
   "thri",
   "ue</w>",
   "thriue</w>"
  ],
  [
   "t",
   "ook</w>",
   "took</w>"
  ],
  [
   "t",
   "in",
   "tin"
  ],
  [
   "ru",
   "n</w>",
   "run</w>"
  ],
  [
   "rec",
   "ent</w>",
   "recent</w>"
  ],
  [
   "r",
   "ou",
   "rou"
  ],
  [
   "pos",
   "ure</w>",
   "posure</w>"
  ],
  [
   "photosyn",
   "thetic</w>",
   "photosynthetic</w>"
  ],
  [
   "p",
   "ers</w>",
   "pers</w>"
  ],
  [
   "on",
   "d</w>",
   "ond</w>"
  ],
  [
   "o",
   "ids</w>",
   "oids</w>"
  ],
  [
   "nor",
   "th</w>",
   "north</w>"
  ],
  [
   "n",
   "et",
   "net"
  ],
  [
   "mon",
   "th</w>",
   "month</w>"
  ],
  [
   "m",
   "ut",
   "mut"
  ],
  [
   "l",
   "ye</w>",
   "lye</w>"
  ],
  [
   "ju",
   "ice</w>",
   "juice</w>"
  ],
  [
   "is",
   "ing</w>",
   "ising</w>"
  ],
  [
   "ing",
   "_</w>",
   "ing_</w>"
  ],
  [
   "in",
   "ven",
   "inven"
  ],
  [
   "hin",
   "d</w>",
   "hind</w>"
  ],
  [
   "gr",
   "ounds</w>",
   "grounds</w>"
  ],
  [
   "g",
   "ot",
   "got"
  ],
  [
   "foll",
   "ow</w>",
   "follow</w>"
  ],
  [
   "f",
   "ting</w>",
   "fting</w>"
  ],
  [
   "f",
   "ill</w>",
   "fill</w>"
  ],
  [
   "et",
   "ch</w>",
   "etch</w>"
  ],
  [
   "de",
   "ad</w>",
   "dead</w>"
  ],
  [
   "d",
   "or</w>",
   "dor</w>"
  ],
  [
   "cou",
   "er</w>",
   "couer</w>"
  ],
  [
   "com",
   "fort</w>",
   "comfort</w>"
  ],
  [
   "car",
   "t</w>",
   "cart</w>"
  ],
  [
   "ber",
   "t</w>",
   "bert</w>"
  ],
  [
   "ber",
   "ries</w>",
   "berries</w>"
  ],
  [
   "begin",
   "ne</w>",
   "beginne</w>"
  ],
  [
   "at",
   "ment</w>",
   "atment</w>"
  ],
  [
   "ap",
   "ples</w>",
   "apples</w>"
  ],
  [
   "al",
   "li",
   "alli"
  ],
  [
   "_ad",
   "v</w>",
   "_adv</w>"
  ],
  [
   "_",
   "R",
   "_R"
  ],
  [
   "Tw",
   "o</w>",
   "Two</w>"
  ],
  [
   "−",
   "</w>",
   "−</w>"
  ],
  [
   "z",
   "a</w>",
   "za</w>"
  ],
  [
   "w",
   "ing</w>",
   "wing</w>"
  ],
  [
   "w",
   "ash",
   "wash"
  ],
  [
   "tra",
   "ditional</w>",
   "traditional</w>"
  ],
  [
   "th",
   "ous",
   "thous"
  ],
  [
   "sub",
   "si",
   "subsi"
  ],
  [
   "se",
   "ene</w>",
   "seene</w>"
  ],
  [
   "se",
   "a</w>",
   "sea</w>"
  ],
  [
   "ro",
   "ads</w>",
   "roads</w>"
  ],
  [
   "pre",
   "ci",
   "preci"
  ],
  [
   "pl",
   "enti",
   "plenti"
  ],
  [
   "om",
   "s</w>",
   "oms</w>"
  ],
  [
   "meas",
   "ure</w>",
   "measure</w>"
  ],
  [
   "me",
   "al</w>",
   "meal</w>"
  ],
  [
   "mal",
   "t</w>",
   "malt</w>"
  ],
  [
   "li",
   "g",
   "lig"
  ],
  [
   "indi",
   "vidu",
   "individu"
  ],
  [
   "in",
   "flu",
   "influ"
  ],
  [
   "hol",
   "e</w>",
   "hole</w>"
  ],
  [
   "her",
   "b",
   "herb"
  ],
  [
   "h",
   "ence</w>",
   "hence</w>"
  ],
  [
   "fe",
   "are</w>",
   "feare</w>"
  ],
  [
   "ent",
   "al</w>",
   "ental</w>"
  ],
  [
   "enclos",
   "ed</w>",
   "enclosed</w>"
  ],
  [
   "d",
   "wide</w>",
   "dwide</w>"
  ],
  [
   "compo",
   "sting</w>",
   "composting</w>"
  ],
  [
   "com",
   "peti",
   "competi"
  ],
  [
   "cl",
   "asses</w>",
   "classes</w>"
  ],
  [
   "cent",
   "uries</w>",
   "centuries</w>"
  ],
  [
   "c",
   "it</w>",
   "cit</w>"
  ],
  [
   "c",
   "e_</w>",
   "ce_</w>"
  ],
  [
   "be",
   "ef</w>",
   "beef</w>"
  ],
  [
   "b",
   "esides</w>",
   "besides</w>"
  ],
  [
   "at",
   "ch</w>",
   "atch</w>"
  ],
  [
   "ag",
   "ed</w>",
   "aged</w>"
  ],
  [
   "ac",
   "comp",
   "accomp"
  ],
  [
   "_",
   "op</w>",
   "_op</w>"
  ],
  [
   "S",
   "p",
   "Sp"
  ],
  [
   "S",
   "cot",
   "Scot"
  ],
  [
   "R",
   "ice</w>",
   "Rice</w>"
  ],
  [
   "P",
   "estic",
   "Pestic"
  ],
  [
   "M",
   "ore</w>",
   "More</w>"
  ],
  [
   "J",
   "u",
   "Ju"
  ],
  [
   "I",
   "ll</w>",
   "Ill</w>"
  ],
  [
   "F",
   "ru",
   "Fru"
  ],
  [
   "Es",
   "sex</w>",
   "Essex</w>"
  ],
  [
   "B",
   "</w>",
   "B</w>"
  ],
  [
   "wi",
   "sh</w>",
   "wish</w>"
  ],
  [
   "v",
   "p",
   "vp"
  ],
  [
   "sub",
   "stance</w>",
   "substance</w>"
  ],
  [
   "sp",
   "ar",
   "spar"
  ],
  [
   "see",
   "_</w>",
   "see_</w>"
  ],
  [
   "sa",
   "w</w>",
   "saw</w>"
  ],
  [
   "s",
   "owed</w>",
   "sowed</w>"
  ],
  [
   "resul",
   "ts</w>",
   "results</w>"
  ],
  [
   "rea",
   "ched</w>",
   "reached</w>"
  ],
  [
   "pre",
   "c",
   "prec"
  ],
  [
   "plough",
   "ing</w>",
   "ploughing</w>"
  ],
  [
   "pe",
   "ase</w>",
   "pease</w>"
  ],
  [
   "out",
   "side</w>",
   "outside</w>"
  ],
  [
   "num",
   "bers</w>",
   "numbers</w>"
  ],
  [
   "n",
   "ouri",
   "nouri"
  ],
  [
   "n",
   "ar",
   "nar"
  ],
  [
   "m",
   "enti",
   "menti"
  ],
  [
   "hum",
   "us</w>",
   "humus</w>"
  ],
  [
   "hon",
   "ey</w>",
   "honey</w>"
  ],
  [
   "graf",
   "ting</w>",
   "grafting</w>"
  ],
  [
   "g",
   "g",
   "gg"
  ],
  [
   "fun",
   "g",
   "fung"
  ],
  [
   "ff",
   "e</w>",
   "ffe</w>"
  ],
  [
   "fashi",
   "on</w>",
   "fashion</w>"
  ],
  [
   "ex",
   "pl",
   "expl"
  ],
  [
   "es",
   "day</w>",
   "esday</w>"
  ],
  [
   "en",
   "z",
   "enz"
  ],
  [
   "em",
   "is",
   "emis"
  ],
  [
   "e",
   "ing</w>",
   "eing</w>"
  ],
  [
   "direc",
   "t</w>",
   "direct</w>"
  ],
  [
   "cro",
   "ss</w>",
   "cross</w>"
  ],
  [
   "comp",
   "ounds</w>",
   "compounds</w>"
  ],
  [
   "b",
   "ought</w>",
   "bought</w>"
  ],
  [
   "at",
   "a</w>",
   "ata</w>"
  ],
  [
   "appar",
   "ently</w>",
   "apparently</w>"
  ],
  [
   "Septem",
   "ber</w>",
   "September</w>"
  ],
  [
   "S",
   "ha",
   "Sha"
  ],
  [
   "S",
   "and</w>",
   "Sand</w>"
  ],
  [
   "P",
   "L",
   "PL"
  ],
  [
   "M",
   "A",
   "MA"
  ],
  [
   "Inter",
   "national</w>",
   "International</w>"
  ],
  [
   "H",
   "un",
   "Hun"
  ],
  [
   "Fran",
   "ce</w>",
   "France</w>"
  ],
  [
   "D",
   "uring</w>",
   "During</w>"
  ],
  [
   "Ab",
   "out</w>",
   "About</w>"
  ],
  [
   "15",
   "73</w>",
   "1573</w>"
  ],
  [
   "15",
   "0</w>",
   "150</w>"
  ],
  [
   "1",
   "10</w>",
   "110</w>"
  ],
  [
   "y",
   "o",
   "yo"
  ],
  [
   "wor",
   "ds</w>",
   "words</w>"
  ],
  [
   "tion",
   "ally</w>",
   "tionally</w>"
  ],
  [
   "stu",
   "b",
   "stub"
  ],
  [
   "stor",
   "ed</w>",
   "stored</w>"
  ],
  [
   "stal",
   "k</w>",
   "stalk</w>"
  ],
  [
   "soy",
   "les</w>",
   "soyles</w>"
  ],
  [
   "sor",
   "ghum</w>",
   "sorghum</w>"
  ],
  [
   "so",
   "ft</w>",
   "soft</w>"
  ],
  [
   "se",
   "ven</w>",
   "seven</w>"
  ],
  [
   "ro",
   "ote</w>",
   "roote</w>"
  ],
  [
   "r",
   "ough</w>",
   "rough</w>"
  ],
  [
   "produc",
   "t</w>",
   "product</w>"
  ],
  [
   "phosphor",
   "us</w>",
   "phosphorus</w>"
  ],
  [
   "pe",
   "a</w>",
   "pea</w>"
  ],
  [
   "or",
   "der",
   "order"
  ],
  [
   "or",
   "chard</w>",
   "orchard</w>"
  ],
  [
   "man",
   "ors</w>",
   "manors</w>"
  ],
  [
   "ll",
   "ing</w>",
   "lling</w>"
  ],
  [
   "li",
   "ue</w>",
   "liue</w>"
  ],
  [
   "la",
   "w</w>",
   "law</w>"
  ],
  [
   "in",
   "ity</w>",
   "inity</w>"
  ],
  [
   "hy",
   "bri",
   "hybri"
  ],
  [
   "har",
   "dly</w>",
   "hardly</w>"
  ],
  [
   "frequ",
   "ently</w>",
   "frequently</w>"
  ],
  [
   "fam",
   "ili",
   "famili"
  ],
  [
   "et",
   "ing</w>",
   "eting</w>"
  ],
  [
   "en",
   "der</w>",
   "ender</w>"
  ],
  [
   "dun",
   "g</w>",
   "dung</w>"
  ],
  [
   "diffic",
   "ult</w>",
   "difficult</w>"
  ],
  [
   "dem",
   "es",
   "demes"
  ],
  [
   "degra",
   "dation</w>",
   "degradation</w>"
  ],
  [
   "cor",
   "rec",
   "correc"
  ],
  [
   "compar",
   "ed</w>",
   "compared</w>"
  ],
  [
   "cle",
   "ar</w>",
   "clear</w>"
  ],
  [
   "cle",
   "an</w>",
   "clean</w>"
  ],
  [
   "bu",
   "d</w>",
   "bud</w>"
  ],
  [
   "brea",
   "k</w>",
   "break</w>"
  ],
  [
   "br",
   "ed</w>",
   "bred</w>"
  ],
  [
   "bi",
   "ological</w>",
   "biological</w>"
  ],
  [
   "be",
   "er</w>",
   "beer</w>"
  ],
  [
   "be",
   "ene</w>",
   "beene</w>"
  ],
  [
   "b",
   "le",
   "ble"
  ],
  [
   "ap",
   "t</w>",
   "apt</w>"
  ],
  [
   "am",
   "es</w>",
   "ames</w>"
  ],
  [
   "R",
   "A",
   "RA"
  ],
  [
   "Octo",
   "ber</w>",
   "October</w>"
  ],
  [
   "Le",
   "ic",
   "Leic"
  ],
  [
   "G",
   "o",
   "Go"
  ],
  [
   "F",
   "it",
   "Fit"
  ],
  [
   "E",
   "li",
   "Eli"
  ],
  [
   "B",
   "e</w>",
   "Be</w>"
  ],
  [
   "B",
   "O",
   "BO"
  ],
  [
   "3",
   "d</w>",
   "3d</w>"
  ],
  [
   "wor",
   "st</w>",
   "worst</w>"
  ],
  [
   "w",
   "est</w>",
   "west</w>"
  ],
  [
   "um",
   "ul",
   "umul"
  ],
  [
   "tr",
   "ust</w>",
   "trust</w>"
  ],
  [
   "ti",
   "s",
   "tis"
  ],
  [
   "ti",
   "ce</w>",
   "tice</w>"
  ],
  [
   "stoc",
   "ke</w>",
   "stocke</w>"
  ],
  [
   "sta",
   "ple</w>",
   "staple</w>"
  ],
  [
   "st",
   "ones</w>",
   "stones</w>"
  ],
  [
   "sh",
   "oo",
   "shoo"
  ],
  [
   "sh",
   "el",
   "shel"
  ],
  [
   "ris",
   "k</w>",
   "risk</w>"
  ],
  [
   "reac",
   "tion</w>",
   "reaction</w>"
  ],
  [
   "po",
   "licy</w>",
   "policy</w>"
  ],
  [
   "po",
   "li",
   "poli"
  ],
  [
   "path",
   "ogen",
   "pathogen"
  ],
  [
   "ow",
   "ner</w>",
   "owner</w>"
  ],
  [
   "ough",
   "out</w>",
   "oughout</w>"
  ],
  [
   "of",
   "t</w>",
   "oft</w>"
  ],
  [
   "miner",
   "als</w>",
   "minerals</w>"
  ],
  [
   "menti",
   "oned</w>",
   "mentioned</w>"
  ],
  [
   "l",
   "ines</w>",
   "lines</w>"
  ],
  [
   "ini",
   "ti",
   "initi"
  ],
  [
   "ic",
   "als</w>",
   "icals</w>"
  ],
  [
   "hol",
   "dings</w>",
   "holdings</w>"
  ],
  [
   "hog",
   "s</w>",
   "hogs</w>"
  ],
  [
   "h",
   "it</w>",
   "hit</w>"
  ],
  [
   "gr",
   "asse</w>",
   "grasse</w>"
  ],
  [
   "fi",
   "ber</w>",
   "fiber</w>"
  ],
  [
   "fer",
   "tile</w>",
   "fertile</w>"
  ],
  [
   "ess",
   "ed</w>",
   "essed</w>"
  ],
  [
   "ent",
   "ary</w>",
   "entary</w>"
  ],
  [
   "ell",
   "ing</w>",
   "elling</w>"
  ],
  [
   "di",
   "et</w>",
   "diet</w>"
  ],
  [
   "del",
   "i",
   "deli"
  ],
  [
   "de",
   "w</w>",
   "dew</w>"
  ],
  [
   "de",
   "pl",
   "depl"
  ],
  [
   "dai",
   "ly</w>",
   "daily</w>"
  ],
  [
   "contin",
   "ued</w>",
   "continued</w>"
  ],
  [
   "cap",
   "ac",
   "capac"
  ],
  [
   "c",
   "ell",
   "cell"
  ],
  [
   "bush",
   "el</w>",
   "bushel</w>"
  ],
  [
   "_",
   "see_</w>",
   "_see_</w>"
  ],
  [
   "T",
   "o",
   "To"
  ],
  [
   "T",
   "e",
   "Te"
  ],
  [
   "J",
   "our",
   "Jour"
  ],
  [
   "I",
   "V</w>",
   "IV</w>"
  ],
  [
   "H",
   "aw",
   "Haw"
  ],
  [
   "190",
   "7</w>",
   "1907</w>"
  ],
  [
   "11",
   "5</w>",
   "115</w>"
  ],
  [
   "1",
   "20</w>",
   "120</w>"
  ],
  [
   "y",
   "thing</w>",
   "ything</w>"
  ],
  [
   "where",
   "as</w>",
   "whereas</w>"
  ],
  [
   "w",
   "eight</w>",
   "weight</w>"
  ],
  [
   "v",
   "in",
   "vin"
  ],
  [
   "uni",
   "ties</w>",
   "unities</w>"
  ],
  [
   "tre",
   "ated</w>",
   "treated</w>"
  ],
  [
   "tow",
   "ns</w>",
   "towns</w>"
  ],
  [
   "t",
   "ar",
   "tar"
  ],
  [
   "sustain",
   "ability</w>",
   "sustainability</w>"
  ],
  [
   "speci",
   "fic</w>",
   "specific</w>"
  ],
  [
   "sci",
   "enti",
   "scienti"
  ],
  [
   "s",
   "ati",
   "sati"
  ],
  [
   "ru",
   "le</w>",
   "rule</w>"
  ],
  [
   "ron",
   "s</w>",
   "rons</w>"
  ],
  [
   "regi",
   "on</w>",
   "region</w>"
  ],
  [
   "pos",
   "s",
   "poss"
  ],
  [
   "num",
   "erous</w>",
   "numerous</w>"
  ],
  [
   "nit",
   "rate</w>",
   "nitrate</w>"
  ],
  [
   "midd",
   "est</w>",
   "middest</w>"
  ],
  [
   "k",
   "ni",
   "kni"
  ],
  [
   "irrig",
   "ated</w>",
   "irrigated</w>"
  ],
  [
   "impor",
   "ted</w>",
   "imported</w>"
  ],
  [
   "i",
   "de",
   "ide"
  ],
  [
   "hea",
   "vi",
   "heavi"
  ],
  [
   "gre",
   "w</w>",
   "grew</w>"
  ],
  [
   "got",
   "ten</w>",
   "gotten</w>"
  ],
  [
   "fl",
   "ax</w>",
   "flax</w>"
  ],
  [
   "fa",
   "ther</w>",
   "father</w>"
  ],
  [
   "f",
   "em",
   "fem"
  ],
  [
   "ex",
   "posure</w>",
   "exposure</w>"
  ],
  [
   "ev",
   "ed</w>",
   "eved</w>"
  ],
  [
   "eu",
   "erie</w>",
   "euerie</w>"
  ],
  [
   "employ",
   "ed</w>",
   "employed</w>"
  ],
  [
   "e",
   "ed</w>",
   "eed</w>"
  ],
  [
   "du",
   "ty</w>",
   "duty</w>"
  ],
  [
   "differ",
   "ence</w>",
   "difference</w>"
  ],
  [
   "de",
   "ed</w>",
   "deed</w>"
  ],
  [
   "cri",
   "ption</w>",
   "cription</w>"
  ],
  [
   "contin",
   "ue</w>",
   "continue</w>"
  ],
  [
   "co",
   "sts</w>",
   "costs</w>"
  ],
  [
   "cle",
   "an",
   "clean"
  ],
  [
   "cer",
   "taine</w>",
   "certaine</w>"
  ],
  [
   "cer",
   "tain",
   "certain"
  ],
  [
   "care",
   "ful</w>",
   "careful</w>"
  ],
  [
   "ca",
   "using</w>",
   "causing</w>"
  ],
  [
   "bene",
   "fits</w>",
   "benefits</w>"
  ],
  [
   "ay",
   "ing</w>",
   "aying</w>"
  ],
  [
   "at",
   "tem",
   "attem"
  ],
  [
   "and",
   "y</w>",
   "andy</w>"
  ],
  [
   "an",
   "i",
   "ani"
  ],
  [
   "an",
   "a</w>",
   "ana</w>"
  ],
  [
   "amoun",
   "ts</w>",
   "amounts</w>"
  ],
  [
   "ad",
   "d</w>",
   "add</w>"
  ],
  [
   "Wil",
   "li",
   "Willi"
  ],
  [
   "Th",
   "e",
   "The"
  ],
  [
   "T",
   "ra",
   "Tra"
  ],
  [
   "S",
   "ta",
   "Sta"
  ],
  [
   "R",
   "og",
   "Rog"
  ],
  [
   "O",
   "r</w>",
   "Or</w>"
  ],
  [
   "O",
   "n",
   "On"
  ],
  [
   "L",
   "in",
   "Lin"
  ],
  [
   "Aust",
   "ral",
   "Austral"
  ],
  [
   "Au",
   "th",
   "Auth"
  ],
  [
   "10",
   "6</w>",
   "106</w>"
  ],
  [
   "wor",
   "ked</w>",
   "worked</w>"
  ],
  [
   "w",
   "rote</w>",
   "wrote</w>"
  ],
  [
   "v",
   "e",
   "ve"
  ],
  [
   "tur",
   "ning</w>",
   "turning</w>"
  ],
  [
   "ter",
   "ed</w>",
   "tered</w>"
  ],
  [
   "t",
   "or",
   "tor"
  ],
  [
   "success",
   "ful</w>",
   "successful</w>"
  ],
  [
   "st",
   "ood</w>",
   "stood</w>"
  ],
  [
   "soy",
   "le</w>",
   "soyle</w>"
  ],
  [
   "sl",
   "a",
   "sla"
  ],
  [
   "sh",
   "ment</w>",
   "shment</w>"
  ],
  [
   "sh",
   "ea",
   "shea"
  ],
  [
   "s",
   "ch",
   "sch"
  ],
  [
   "s",
   "ation</w>",
   "sation</w>"
  ],
  [
   "pur",
   "poses</w>",
   "purposes</w>"
  ],
  [
   "popul",
   "ations</w>",
   "populations</w>"
  ],
  [
   "ou",
   "er",
   "ouer"
  ],
  [
   "ne",
   "w",
   "new"
  ],
  [
   "n",
   "ers</w>",
   "ners</w>"
  ],
  [
   "k",
   "ey</w>",
   "key</w>"
  ],
  [
   "it",
   "self</w>",
   "itself</w>"
  ],
  [
   "in",
   "corpor",
   "incorpor"
  ],
  [
   "in",
   "come</w>",
   "income</w>"
  ],
  [
   "id",
   "er</w>",
   "ider</w>"
  ],
  [
   "ic",
   "ides</w>",
   "icides</w>"
  ],
  [
   "high",
   "ly</w>",
   "highly</w>"
  ],
  [
   "graf",
   "ts</w>",
   "grafts</w>"
  ],
  [
   "gra",
   "ine</w>",
   "graine</w>"
  ],
  [
   "ex",
   "change</w>",
   "exchange</w>"
  ],
  [
   "en",
   "g</w>",
   "eng</w>"
  ],
  [
   "ef",
   "ly</w>",
   "efly</w>"
  ],
  [
   "ee",
   "l</w>",
   "eel</w>"
  ],
  [
   "ec",
   "ting</w>",
   "ecting</w>"
  ],
  [
   "drin",
   "k</w>",
   "drink</w>"
  ],
  [
   "direc",
   "tly</w>",
   "directly</w>"
  ],
  [
   "c",
   "y</w>",
   "cy</w>"
  ],
  [
   "c",
   "el",
   "cel"
  ],
  [
   "bus",
   "iness</w>",
   "business</w>"
  ],
  [
   "betwe",
   "ene</w>",
   "betweene</w>"
  ],
  [
   "acc",
   "umul",
   "accumul"
  ],
  [
   "S",
   "um",
   "Sum"
  ],
  [
   "P",
   "ric",
   "Pric"
  ],
  [
   "I",
   "s",
   "Is"
  ],
  [
   "Austral",
   "ia</w>",
   "Australia</w>"
  ],
  [
   "Ag",
   "es</w>",
   "Ages</w>"
  ],
  [
   "14",
   "3</w>",
   "143</w>"
  ],
  [
   "11",
   "3</w>",
   "113</w>"
  ],
  [
   "10",
   "s</w>",
   "10s</w>"
  ],
  [
   "ée",
   "de</w>",
   "éede</w>"
  ],
  [
   "worl",
   "dwide</w>",
   "worldwide</w>"
  ],
  [
   "wor",
   "ks</w>",
   "works</w>"
  ],
  [
   "wor",
   "k",
   "work"
  ],
  [
   "v",
   "sed</w>",
   "vsed</w>"
  ],
  [
   "there",
   "by</w>",
   "thereby</w>"
  ],
  [
   "s",
   "in",
   "sin"
  ],
  [
   "reduc",
   "tion</w>",
   "reduction</w>"
  ],
  [
   "reac",
   "tions</w>",
   "reactions</w>"
  ],
  [
   "rea",
   "m</w>",
   "ream</w>"
  ],
  [
   "prov",
   "ides</w>",
   "provides</w>"
  ],
  [
   "prepar",
   "ed</w>",
   "prepared</w>"
  ],
  [
   "pre",
   "vi",
   "previ"
  ],
  [
   "oul",
   "try</w>",
   "oultry</w>"
  ],
  [
   "op",
   "in",
   "opin"
  ],
  [
   "occ",
   "ur</w>",
   "occur</w>"
  ],
  [
   "no",
   "tic",
   "notic"
  ],
  [
   "n",
   "y</w>",
   "ny</w>"
  ],
  [
   "los",
   "ses</w>",
   "losses</w>"
  ],
  [
   "he",
   "althy</w>",
   "healthy</w>"
  ],
  [
   "har",
   "d",
   "hard"
  ],
  [
   "g",
   "ement</w>",
   "gement</w>"
  ],
  [
   "fri",
   "end</w>",
   "friend</w>"
  ],
  [
   "four",
   "th</w>",
   "fourth</w>"
  ],
  [
   "for",
   "est",
   "forest"
  ],
  [
   "fl",
   "oo",
   "floo"
  ],
  [
   "fl",
   "o",
   "flo"
  ],
  [
   "fl",
   "esh</w>",
   "flesh</w>"
  ],
  [
   "enz",
   "y",
   "enzy"
  ],
  [
   "d",
   "l",
   "dl"
  ],
  [
   "cre",
   "di",
   "credi"
  ],
  [
   "cra",
   "ue</w>",
   "craue</w>"
  ],
  [
   "cl",
   "us",
   "clus"
  ],
  [
   "cap",
   "ital</w>",
   "capital</w>"
  ],
  [
   "c",
   "row",
   "crow"
  ],
  [
   "bro",
   "ken</w>",
   "broken</w>"
  ],
  [
   "bro",
   "ad",
   "broad"
  ],
  [
   "be",
   "comes</w>",
   "becomes</w>"
  ],
  [
   "as",
   "ed</w>",
   "ased</w>"
  ],
  [
   "all",
   "ows</w>",
   "allows</w>"
  ],
  [
   "ain",
   "ed</w>",
   "ained</w>"
  ],
  [
   "aff",
   "ected</w>",
   "affected</w>"
  ],
  [
   "ac",
   "ks</w>",
   "acks</w>"
  ],
  [
   "a",
   "un",
   "aun"
  ],
  [
   "T",
   "ext</w>",
   "Text</w>"
  ],
  [
   "L",
   "ea",
   "Lea"
  ],
  [
   "H",
   "ence</w>",
   "Hence</w>"
  ],
  [
   "Fur",
   "ni",
   "Furni"
  ],
  [
   "Fe",
   "bru",
   "Febru"
  ],
  [
   "Cor",
   "n</w>",
   "Corn</w>"
  ],
  [
   "Al",
   "though</w>",
   "Although</w>"
  ],
  [
   "20",
   "23</w>",
   "2023</w>"
  ],
  [
   "y",
   "ellow</w>",
   "yellow</w>"
  ],
  [
   "woo",
   "d",
   "wood"
  ],
  [
   "us",
   "ual</w>",
   "usual</w>"
  ],
  [
   "un",
   "to</w>",
   "unto</w>"
  ],
  [
   "t",
   "ation</w>",
   "tation</w>"
  ],
  [
   "sp",
   "ace</w>",
   "space</w>"
  ],
  [
   "sk",
   "ill</w>",
   "skill</w>"
  ],
  [
   "ser",
   "ious</w>",
   "serious</w>"
  ],
  [
   "s",
   "own</w>",
   "sown</w>"
  ],
  [
   "ro",
   "se</w>",
   "rose</w>"
  ],
  [
   "rele",
   "ase</w>",
   "release</w>"
  ],
  [
   "re",
   "vol",
   "revol"
  ],
  [
   "qu",
   "es",
   "ques"
  ],
  [
   "qu",
   "ali",
   "quali"
  ],
  [
   "per",
   "cent</w>",
   "percent</w>"
  ],
  [
   "par",
   "tly</w>",
   "partly</w>"
  ],
  [
   "orig",
   "in</w>",
   "origin</w>"
  ],
  [
   "nam",
   "ely</w>",
   "namely</w>"
  ],
  [
   "n",
   "al",
   "nal"
  ],
  [
   "manufac",
   "tur",
   "manufactur"
  ],
  [
   "lim",
   "ited</w>",
   "limited</w>"
  ],
  [
   "le",
   "ading</w>",
   "leading</w>"
  ],
  [
   "im",
   "medi",
   "immedi"
  ],
  [
   "im",
   "e</w>",
   "ime</w>"
  ],
  [
   "h",
   "ill</w>",
   "hill</w>"
  ],
  [
   "gre",
   "ene</w>",
   "greene</w>"
  ],
  [
   "gover",
   "nment</w>",
   "government</w>"
  ],
  [
   "ga",
   "in</w>",
   "gain</w>"
  ],
  [
   "ex",
   "ports</w>",
   "exports</w>"
  ],
  [
   "ester",
   "n</w>",
   "estern</w>"
  ],
  [
   "est",
   "ing</w>",
   "esting</w>"
  ],
  [
   "e",
   "wise</w>",
   "ewise</w>"
  ],
  [
   "e",
   "an</w>",
   "ean</w>"
  ],
  [
   "do",
   "g</w>",
   "dog</w>"
  ],
  [
   "div",
   "ided</w>",
   "divided</w>"
  ],
  [
   "des",
   "ire</w>",
   "desire</w>"
  ],
  [
   "con",
   "f",
   "conf"
  ],
  [
   "co",
   "g",
   "cog"
  ],
  [
   "ci",
   "es</w>",
   "cies</w>"
  ],
  [
   "chem",
   "icals</w>",
   "chemicals</w>"
  ],
  [
   "capac",
   "ity</w>",
   "capacity</w>"
  ],
  [
   "c",
   "abb",
   "cabb"
  ],
  [
   "bin",
   "ding</w>",
   "binding</w>"
  ],
  [
   "be",
   "st",
   "best"
  ],
  [
   "b",
   "light</w>",
   "blight</w>"
  ],
  [
   "au",
   "thor",
   "author"
  ],
  [
   "am",
   "in",
   "amin"
  ],
  [
   "all",
   "s</w>",
   "alls</w>"
  ],
  [
   "ai",
   "le</w>",
   "aile</w>"
  ],
  [
   "a",
   "z",
   "az"
  ],
  [
   "a",
   "di",
   "adi"
  ],
  [
   "a",
   "chi",
   "achi"
  ],
  [
   "Willi",
   "am</w>",
   "William</w>"
  ],
  [
   "V",
   "II</w>",
   "VII</w>"
  ],
  [
   "S",
   "mi",
   "Smi"
  ],
  [
   "R",
   "ea",
   "Rea"
  ],
  [
   "N",
   "ote</w>",
   "Note</w>"
  ],
  [
   "D",
   "ec",
   "Dec"
  ],
  [
   "B",
   "u",
   "Bu"
  ],
  [
   "13",
   "8</w>",
   "138</w>"
  ],
  [
   "w",
   "el",
   "wel"
  ],
  [
   "vn",
   "der</w>",
   "vnder</w>"
  ],
  [
   "u",
   "n</w>",
   "un</w>"
  ],
  [
   "thr",
   "oughout</w>",
   "throughout</w>"
  ],
  [
   "su",
   "m</w>",
   "sum</w>"
  ],
  [
   "se",
   "ts</w>",
   "sets</w>"
  ],
  [
   "se",
   "th</w>",
   "seth</w>"
  ],
  [
   "s",
   "owne</w>",
   "sowne</w>"
  ],
  [
   "ri",
   "pen",
   "ripen"
  ],
  [
   "ri",
   "dge</w>",
   "ridge</w>"
  ],
  [
   "resi",
   "stant</w>",
   "resistant</w>"
  ],
  [
   "remo",
   "ved</w>",
   "removed</w>"
  ],
  [
   "reduc",
   "ing</w>",
   "reducing</w>"
  ],
  [
   "ra",
   "tions</w>",
   "rations</w>"
  ],
  [
   "pu",
   "ts</w>",
   "puts</w>"
  ],
  [
   "pl",
   "an</w>",
   "plan</w>"
  ],
  [
   "per",
   "sons</w>",
   "persons</w>"
  ],
  [
   "pathogen",
   "s</w>",
   "pathogens</w>"
  ],
  [
   "p",
   "en</w>",
   "pen</w>"
  ],
  [
   "p",
   "ap",
   "pap"
  ],
  [
   "or",
   "ity</w>",
   "ority</w>"
  ],
  [
   "om",
   "esday</w>",
   "omesday</w>"
  ],
  [
   "nam",
   "ed</w>",
   "named</w>"
  ],
  [
   "n",
   "et</w>",
   "net</w>"
  ],
  [
   "m",
   "oun",
   "moun"
  ],
  [
   "lea",
   "ve</w>",
   "leave</w>"
  ],
  [
   "le",
   "th</w>",
   "leth</w>"
  ],
  [
   "l",
   "ose</w>",
   "lose</w>"
  ],
  [
   "in",
   "stance</w>",
   "instance</w>"
  ],
  [
   "improv",
   "ements</w>",
   "improvements</w>"
  ],
  [
   "ill",
   "ing</w>",
   "illing</w>"
  ],
  [
   "hy",
   "dro",
   "hydro"
  ],
  [
   "him",
   "self</w>",
   "himself</w>"
  ],
  [
   "hem",
   "p</w>",
   "hemp</w>"
  ],
  [
   "hect",
   "are</w>",
   "hectare</w>"
  ],
  [
   "he",
   "dge</w>",
   "hedge</w>"
  ],
  [
   "green",
   "house</w>",
   "greenhouse</w>"
  ],
  [
   "gra",
   "zing</w>",
   "grazing</w>"
  ],
  [
   "gra",
   "y</w>",
   "gray</w>"
  ],
  [
   "go",
   "ing</w>",
   "going</w>"
  ],
  [
   "fl",
   "ow</w>",
   "flow</w>"
  ],
  [
   "f",
   "ence</w>",
   "fence</w>"
  ],
  [
   "f",
   "ell</w>",
   "fell</w>"
  ],
  [
   "es",
   "sion</w>",
   "ession</w>"
  ],
  [
   "en",
   "ding</w>",
   "ending</w>"
  ],
  [
   "emis",
   "sions</w>",
   "emissions</w>"
  ],
  [
   "elec",
   "tro",
   "electro"
  ],
  [
   "di",
   "min",
   "dimin"
  ],
  [
   "des",
   "i",
   "desi"
  ],
  [
   "demes",
   "ne</w>",
   "demesne</w>"
  ],
  [
   "dec",
   "ay</w>",
   "decay</w>"
  ],
  [
   "de",
   "gre",
   "degre"
  ],
  [
   "d",
   "ee",
   "dee"
  ],
  [
   "cy",
   "ons</w>",
   "cyons</w>"
  ],
  [
   "coun",
   "ty</w>",
   "county</w>"
  ],
  [
   "contin",
   "u",
   "continu"
  ],
  [
   "carbo",
   "hydr",
   "carbohydr"
  ],
  [
   "c",
   "urious</w>",
   "curious</w>"
  ],
  [
   "bur",
   "y</w>",
   "bury</w>"
  ],
  [
   "bri",
   "dge</w>",
   "bridge</w>"
  ],
  [
   "brea",
   "ke</w>",
   "breake</w>"
  ],
  [
   "atmosph",
   "ere</w>",
   "atmosphere</w>"
  ],
  [
   "assi",
   "um</w>",
   "assium</w>"
  ],
  [
   "ash",
   "es</w>",
   "ashes</w>"
  ],
  [
   "appear",
   "ed</w>",
   "appeared</w>"
  ],
  [
   "ammon",
   "ia</w>",
   "ammonia</w>"
  ],
  [
   "al",
   "one</w>",
   "alone</w>"
  ],
  [
   "accoun",
   "ts</w>",
   "accounts</w>"
  ],
  [
   "ab",
   "</w>",
   "ab</w>"
  ],
  [
   "_",
   "c",
   "_c"
  ],
  [
   "_",
   "V",
   "_V"
  ],
  [
   "_",
   "T",
   "_T"
  ],
  [
   "St",
   "ate</w>",
   "State</w>"
  ],
  [
   "R",
   "ec",
   "Rec"
  ],
  [
   "Pl",
   "um",
   "Plum"
  ],
  [
   "Pl",
   "ant</w>",
   "Plant</w>"
  ],
  [
   "N",
   "ot</w>",
   "Not</w>"
  ],
  [
   "G",
   "r",
   "Gr"
  ],
  [
   "C",
   "lo",
   "Clo"
  ],
  [
   "C",
   "U",
   "CU"
  ],
  [
   "B",
   "re",
   "Bre"
  ],
  [
   "B",
   "et",
   "Bet"
  ],
  [
   "5",
   "0",
   "50"
  ],
  [
   "y",
   "es</w>",
   "yes</w>"
  ],
  [
   "wor",
   "king</w>",
   "working</w>"
  ],
  [
   "v",
   "s</w>",
   "vs</w>"
  ],
  [
   "ut",
   "es</w>",
   "utes</w>"
  ],
  [
   "tou",
   "ching</w>",
   "touching</w>"
  ],
  [
   "ti",
   "g",
   "tig"
  ],
  [
   "thir",
   "ty</w>",
   "thirty</w>"
  ],
  [
   "ta",
   "kes</w>",
   "takes</w>"
  ],
  [
   "t",
   "or</w>",
   "tor</w>"
  ],
  [
   "sy",
   "m",
   "sym"
  ],
  [
   "stra",
   "ight</w>",
   "straight</w>"
  ],
  [
   "st",
   "age</w>",
   "stage</w>"
  ],
  [
   "spea",
   "ke</w>",
   "speake</w>"
  ],
  [
   "sm",
   "ooth</w>",
   "smooth</w>"
  ],
  [
   "serv",
   "ation</w>",
   "servation</w>"
  ],
  [
   "s",
   "ale</w>",
   "sale</w>"
  ],
  [
   "resear",
   "ch</w>",
   "research</w>"
  ],
  [
   "remo",
   "ve</w>",
   "remove</w>"
  ],
  [
   "recei",
   "ved</w>",
   "received</w>"
  ],
  [
   "re",
   "ma",
   "rema"
  ],
  [
   "ra",
   "di",
   "radi"
  ],
  [
   "pub",
   "lic</w>",
   "public</w>"
  ],
  [
   "produc",
   "es</w>",
   "produces</w>"
  ],
  [
   "prim",
   "ary</w>",
   "primary</w>"
  ],
  [
   "po",
   "t</w>",
   "pot</w>"
  ],
  [
   "pic",
   "ally</w>",
   "pically</w>"
  ],
  [
   "per",
   "ennial</w>",
   "perennial</w>"
  ],
  [
   "par",
   "ent</w>",
   "parent</w>"
  ],
  [
   "p",
   "et",
   "pet"
  ],
  [
   "or",
   "ies</w>",
   "ories</w>"
  ],
  [
   "ob",
   "seru",
   "obseru"
  ],
  [
   "o",
   "li",
   "oli"
  ],
  [
   "neg",
   "lec",
   "neglec"
  ],
  [
   "mo",
   "ist</w>",
   "moist</w>"
  ],
  [
   "lik",
   "ewise</w>",
   "likewise</w>"
  ],
  [
   "l",
   "ad",
   "lad"
  ],
  [
   "ker",
   "n",
   "kern"
  ],
  [
   "inten",
   "sive</w>",
   "intensive</w>"
  ],
  [
   "i",
   "an</w>",
   "ian</w>"
  ],
  [
   "gr",
   "ound",
   "ground"
  ],
  [
   "gather",
   "ed</w>",
   "gathered</w>"
  ],
  [
   "for",
   "ced</w>",
   "forced</w>"
  ],
  [
   "fl",
   "ow",
   "flow"
  ],
  [
   "f",
   "are</w>",
   "fare</w>"
  ],
  [
   "f",
   "a</w>",
   "fa</w>"
  ],
  [
   "estab",
   "lished</w>",
   "established</w>"
  ],
  [
   "equ",
   "i",
   "equi"
  ],
  [
   "eff",
   "icient</w>",
   "efficient</w>"
  ],
  [
   "e",
   "ver",
   "ever"
  ],
  [
   "diu",
   "ers</w>",
   "diuers</w>"
  ],
  [
   "consum",
   "ed</w>",
   "consumed</w>"
  ],
  [
   "con",
   "su",
   "consu"
  ],
  [
   "ch",
   "ers</w>",
   "chers</w>"
  ],
  [
   "b",
   "ound</w>",
   "bound</w>"
  ],
  [
   "av",
   "or</w>",
   "avor</w>"
  ],
  [
   "ast",
   "er",
   "aster"
  ],
  [
   "an",
   "g",
   "ang"
  ],
  [
   "al",
   "t</w>",
   "alt</w>"
  ],
  [
   "ac",
   "idi",
   "acidi"
  ],
  [
   "_",
   "i</w>",
   "_i</w>"
  ],
  [
   "_",
   "f",
   "_f"
  ],
  [
   "Soc",
   "</w>",
   "Soc</w>"
  ],
  [
   "Sha",
   "k",
   "Shak"
  ],
  [
   "Rog",
   "ers</w>",
   "Rogers</w>"
  ],
  [
   "R",
   "us",
   "Rus"
  ],
  [
   "R",
   "o",
   "Ro"
  ],
  [
   "Or",
   "chard</w>",
   "Orchard</w>"
  ],
  [
   "M",
   "in",
   "Min"
  ],
  [
   "M",
   "il",
   "Mil"
  ],
  [
   "M",
   "e",
   "Me"
  ],
  [
   "I",
   "R",
   "IR"
  ],
  [
   "D",
   "u",
   "Du"
  ],
  [
   "Cro",
   "p</w>",
   "Crop</w>"
  ],
  [
   "Cot",
   "grave</w>",
   "Cotgrave</w>"
  ],
  [
   "Chri",
   "st</w>",
   "Christ</w>"
  ],
  [
   "Ch",
   "er",
   "Cher"
  ],
  [
   "C",
   "our",
   "Cour"
  ],
  [
   "13",
   "6</w>",
   "136</w>"
  ],
  [
   "13",
   "0</w>",
   "130</w>"
  ],
  [
   "10",
   "2</w>",
   "102</w>"
  ],
  [
   "wor",
   "ms</w>",
   "worms</w>"
  ],
  [
   "use",
   "ful</w>",
   "useful</w>"
  ],
  [
   "ur",
   "b",
   "urb"
  ],
  [
   "tri",
   "bu",
   "tribu"
  ],
  [
   "thin",
   "ke</w>",
   "thinke</w>"
  ],
  [
   "temperat",
   "ures</w>",
   "temperatures</w>"
  ],
  [
   "te",
   "l</w>",
   "tel</w>"
  ],
  [
   "t",
   "rac",
   "trac"
  ],
  [
   "sub",
   "ject</w>",
   "subject</w>"
  ],
  [
   "sp",
   "ent</w>",
   "spent</w>"
  ],
  [
   "sp",
   "end</w>",
   "spend</w>"
  ],
  [
   "sh",
   "ew</w>",
   "shew</w>"
  ],
  [
   "re",
   "stric",
   "restric"
  ],
  [
   "re",
   "main</w>",
   "remain</w>"
  ],
  [
   "pre",
   "ven",
   "preven"
  ],
  [
   "per",
   "son</w>",
   "person</w>"
  ],
  [
   "parti",
   "cles</w>",
   "particles</w>"
  ],
  [
   "p",
   "ound</w>",
   "pound</w>"
  ],
  [
   "p",
   "ag",
   "pag"
  ],
  [
   "oy",
   "al</w>",
   "oyal</w>"
  ],
  [
   "ou",
   "se</w>",
   "ouse</w>"
  ],
  [
   "om",
   "y</w>",
   "omy</w>"
  ],
  [
   "mo",
   "th</w>",
   "moth</w>"
  ],
  [
   "m",
   "a</w>",
   "ma</w>"
  ],
  [
   "lo",
   "os",
   "loos"
  ],
  [
   "kni",
   "fe</w>",
   "knife</w>"
  ],
  [
   "k",
   "le</w>",
   "kle</w>"
  ],
  [
   "is",
   "se</w>",
   "isse</w>"
  ],
  [
   "il",
   "ing</w>",
   "iling</w>"
  ],
  [
   "i",
   "ent</w>",
   "ient</w>"
  ],
  [
   "gl",
   "ut",
   "glut"
  ],
  [
   "gen",
   "ce</w>",
   "gence</w>"
  ],
  [
   "fa",
   "ir</w>",
   "fair</w>"
  ],
  [
   "eu",
   "ill</w>",
   "euill</w>"
  ],
  [
   "equ",
   "al</w>",
   "equal</w>"
  ],
  [
   "enti",
   "onal</w>",
   "entional</w>"
  ],
  [
   "ecosy",
   "stem</w>",
   "ecosystem</w>"
  ],
  [
   "e",
   "ye</w>",
   "eye</w>"
  ],
  [
   "e",
   "ve</w>",
   "eve</w>"
  ],
  [
   "dist",
   "ress</w>",
   "distress</w>"
  ],
  [
   "d",
   "ar",
   "dar"
  ],
  [
   "con",
   "tained</w>",
   "contained</w>"
  ],
  [
   "compl",
   "ex</w>",
   "complex</w>"
  ],
  [
   "chi",
   "efly</w>",
   "chiefly</w>"
  ],
  [
   "charac",
   "ter",
   "character"
  ],
  [
   "c",
   "ell</w>",
   "cell</w>"
  ],
  [
   "buil",
   "t</w>",
   "built</w>"
  ],
  [
   "bear",
   "ing</w>",
   "bearing</w>"
  ],
  [
   "b",
   "ooke</w>",
   "booke</w>"
  ],
  [
   "ar",
   "ticle</w>",
   "article</w>"
  ],
  [
   "ann",
   "ually</w>",
   "annually</w>"
  ],
  [
   "anc",
   "ed</w>",
   "anced</w>"
  ],
  [
   "an",
   "tly</w>",
   "antly</w>"
  ],
  [
   "an",
   "obac",
   "anobac"
  ],
  [
   "T",
   "O</w>",
   "TO</w>"
  ],
  [
   "Sk",
   "eat</w>",
   "Skeat</w>"
  ],
  [
   "S",
   "un",
   "Sun"
  ],
  [
   "S",
   "T",
   "ST"
  ],
  [
   "R",
   "om",
   "Rom"
  ],
  [
   "Pric",
   "es_</w>",
   "Prices_</w>"
  ],
  [
   "M",
   "ake</w>",
   "Make</w>"
  ],
  [
   "H",
   "uswi",
   "Huswi"
  ],
  [
   "Euro",
   "pe",
   "Europe"
  ],
  [
   "En",
   "g</w>",
   "Eng</w>"
  ],
  [
   "Ear",
   "th</w>",
   "Earth</w>"
  ],
  [
   "E",
   "X",
   "EX"
  ],
  [
   "E",
   "D</w>",
   "ED</w>"
  ],
  [
   "Cha",
   "p",
   "Chap"
  ],
  [
   "C",
   "y",
   "Cy"
  ],
  [
   "B",
   "l",
   "Bl"
  ],
  [
   "11",
   "2</w>",
   "112</w>"
  ],
  [
   "wri",
   "tten</w>",
   "written</w>"
  ],
  [
   "wh",
   "ence</w>",
   "whence</w>"
  ],
  [
   "we",
   "l</w>",
   "wel</w>"
  ],
  [
   "vi",
   "ew</w>",
   "view</w>"
  ],
  [
   "v",
   "all</w>",
   "vall</w>"
  ],
  [
   "v",
   "al</w>",
   "val</w>"
  ],
  [
   "ty",
   "pically</w>",
   "typically</w>"
  ],
  [
   "ti",
   "de</w>",
   "tide</w>"
  ],
  [
   "there",
   "in</w>",
   "therein</w>"
  ],
  [
   "ten",
   "d</w>",
   "tend</w>"
  ],
  [
   "techniqu",
   "es</w>",
   "techniques</w>"
  ],
  [
   "techn",
   "ology</w>",
   "technology</w>"
  ],
  [
   "sul",
   "ph",
   "sulph"
  ],
  [
   "su",
   "s</w>",
   "sus</w>"
  ],
  [
   "su",
   "itable</w>",
   "suitable</w>"
  ],
  [
   "so",
   "iles</w>",
   "soiles</w>"
  ],
  [
   "shar",
   "pe</w>",
   "sharpe</w>"
  ],
  [
   "sh",
   "o",
   "sho"
  ],
  [
   "seru",
   "ant</w>",
   "seruant</w>"
  ],
  [
   "sal",
   "ts</w>",
   "salts</w>"
  ],
  [
   "s",
   "cat",
   "scat"
  ],
  [
   "s",
   "andy</w>",
   "sandy</w>"
  ],
  [
   "s",
   "age</w>",
   "sage</w>"
  ],
  [
   "ro",
   "gen",
   "rogen"
  ],
  [
   "requ",
   "i",
   "requi"
  ],
  [
   "rec",
   "k",
   "reck"
  ],
  [
   "rea",
   "ch</w>",
   "reach</w>"
  ],
  [
   "re",
   "p",
   "rep"
  ],
  [
   "ra",
   "b",
   "rab"
  ],
  [
   "prote",
   "ins</w>",
   "proteins</w>"
  ],
  [
   "proper",
   "ty</w>",
   "property</w>"
  ],
  [
   "princ",
   "i",
   "princi"
  ],
  [
   "pi",
   "gs</w>",
   "pigs</w>"
  ],
  [
   "pi",
   "d</w>",
   "pid</w>"
  ],
  [
   "opin",
   "ion</w>",
   "opinion</w>"
  ],
  [
   "modi",
   "fied</w>",
   "modified</w>"
  ],
  [
   "m",
   "ass</w>",
   "mass</w>"
  ],
  [
   "in",
   "ch</w>",
   "inch</w>"
  ],
  [
   "ic",
   "kn",
   "ickn"
  ],
  [
   "hol",
   "der</w>",
   "holder</w>"
  ],
  [
   "hea",
   "ds</w>",
   "heads</w>"
  ],
  [
   "ga",
   "ine</w>",
   "gaine</w>"
  ],
  [
   "fra",
   "me</w>",
   "frame</w>"
  ],
  [
   "form",
   "ing</w>",
   "forming</w>"
  ],
  [
   "fal",
   "fa</w>",
   "falfa</w>"
  ],
  [
   "f",
   "ea",
   "fea"
  ],
  [
   "en",
   "em",
   "enem"
  ],
  [
   "eff",
   "ective</w>",
   "effective</w>"
  ],
  [
   "desi",
   "rable</w>",
   "desirable</w>"
  ],
  [
   "cut",
   "tings</w>",
   "cuttings</w>"
  ],
  [
   "comp",
   "on",
   "compon"
  ],
  [
   "c",
   "ells</w>",
   "cells</w>"
  ],
  [
   "bio",
   "tic</w>",
   "biotic</w>"
  ],
  [
   "belon",
   "ging</w>",
   "belonging</w>"
  ],
  [
   "bel",
   "i",
   "beli"
  ],
  [
   "b",
   "oo",
   "boo"
  ],
  [
   "app",
   "ear</w>",
   "appear</w>"
  ],
  [
   "an",
   "no",
   "anno"
  ],
  [
   "ag",
   "r",
   "agr"
  ],
  [
   "ad",
   "a</w>",
   "ada</w>"
  ],
  [
   "a",
   "er",
   "aer"
  ],
  [
   "a",
   "de",
   "ade"
  ],
  [
   "_",
   "b",
   "_b"
  ],
  [
   "Y",
   "or",
   "Yor"
  ],
  [
   "Thor",
   "old</w>",
   "Thorold</w>"
  ],
  [
   "S",
   "hor",
   "Shor"
  ],
  [
   "O",
   "ld</w>",
   "Old</w>"
  ],
  [
   "Gre",
   "en</w>",
   "Green</w>"
  ],
  [
   "Europe",
   "an</w>",
   "European</w>"
  ],
  [
   "B",
   "ur",
   "Bur"
  ],
  [
   "ville",
   "ins</w>",
   "villeins</w>"
  ],
  [
   "vi",
   "</w>",
   "vi</w>"
  ],
  [
   "v",
   "ines</w>",
   "vines</w>"
  ],
  [
   "v",
   "il</w>",
   "vil</w>"
  ],
  [
   "u",
   "re",
   "ure"
  ],
  [
   "u",
   "b",
   "ub"
  ],
  [
   "tro",
   "pical</w>",
   "tropical</w>"
  ],
  [
   "tre",
   "atment</w>",
   "treatment</w>"
  ],
  [
   "tow",
   "ards</w>",
   "towards</w>"
  ],
  [
   "t",
   "ons</w>",
   "tons</w>"
  ],
  [
   "sup",
   "pl",
   "suppl"
  ],
  [
   "suff",
   "ered</w>",
   "suffered</w>"
  ],
  [
   "stub",
   "ble</w>",
   "stubble</w>"
  ],
  [
   "stu",
   "dies</w>",
   "studies</w>"
  ],
  [
   "stat",
   "ement</w>",
   "statement</w>"
  ],
  [
   "sp",
   "ite</w>",
   "spite</w>"
  ],
  [
   "sp",
   "in",
   "spin"
  ],
  [
   "sol",
   "u",
   "solu"
  ],
  [
   "si",
   "an</w>",
   "sian</w>"
  ],
  [
   "sh",
   "ee",
   "shee"
  ],
  [
   "ri",
   "sing</w>",
   "rising</w>"
  ],
  [
   "ri",
   "cul",
   "ricul"
  ],
  [
   "re",
   "cog",
   "recog"
  ],
  [
   "re",
   "al",
   "real"
  ],
  [
   "purch",
   "ase</w>",
   "purchase</w>"
  ],
  [
   "pu",
   "p",
   "pup"
  ],
  [
   "prot",
   "ection</w>",
   "protection</w>"
  ],
  [
   "pres",
   "sed</w>",
   "pressed</w>"
  ],
  [
   "past",
   "ures</w>",
   "pastures</w>"
  ],
  [
   "p",
   "um",
   "pum"
  ],
  [
   "p",
   "on",
   "pon"
  ],
  [
   "or",
   "m",
   "orm"
  ],
  [
   "ob",
   "tained</w>",
   "obtained</w>"
  ],
  [
   "nee",
   "d",
   "need"
  ],
  [
   "micro",
   "bi",
   "microbi"
  ],
  [
   "mat",
   "ure</w>",
   "mature</w>"
  ],
  [
   "m",
   "es",
   "mes"
  ],
  [
   "loo",
   "k</w>",
   "look</w>"
  ],
  [
   "leav",
   "ing</w>",
   "leaving</w>"
  ],
  [
   "lay",
   "ing</w>",
   "laying</w>"
  ],
  [
   "larv",
   "ae</w>",
   "larvae</w>"
  ],
  [
   "l",
   "an",
   "lan"
  ],
  [
   "kin",
   "de</w>",
   "kinde</w>"
  ],
  [
   "inter",
   "est</w>",
   "interest</w>"
  ],
  [
   "industri",
   "al</w>",
   "industrial</w>"
  ],
  [
   "inclu",
   "ded</w>",
   "included</w>"
  ],
  [
   "hy",
   "d",
   "hyd"
  ],
  [
   "high",
   "est</w>",
   "highest</w>"
  ],
  [
   "h",
   "all</w>",
   "hall</w>"
  ],
  [
   "gra",
   "m</w>",
   "gram</w>"
  ],
  [
   "go",
   "e</w>",
   "goe</w>"
  ],
  [
   "g",
   "ir",
   "gir"
  ],
  [
   "fu",
   "ture</w>",
   "future</w>"
  ],
  [
   "fall",
   "en</w>",
   "fallen</w>"
  ],
  [
   "f",
   "ly</w>",
   "fly</w>"
  ],
  [
   "ell",
   "ed</w>",
   "elled</w>"
  ],
  [
   "electro",
   "n</w>",
   "electron</w>"
  ],
  [
   "ec",
   "ological</w>",
   "ecological</w>"
  ],
  [
   "earli",
   "est</w>",
   "earliest</w>"
  ],
  [
   "e",
   "pe</w>",
   "epe</w>"
  ],
  [
   "draw",
   "n</w>",
   "drawn</w>"
  ],
  [
   "domestic",
   "</w>",
   "domestic</w>"
  ],
  [
   "d",
   "g",
   "dg"
  ],
  [
   "coun",
   "t</w>",
   "count</w>"
  ],
  [
   "con",
   "ven",
   "conven"
  ],
  [
   "con",
   "stant</w>",
   "constant</w>"
  ],
  [
   "clim",
   "ates</w>",
   "climates</w>"
  ],
  [
   "ch",
   "er",
   "cher"
  ],
  [
   "be",
   "ar</w>",
   "bear</w>"
  ],
  [
   "ap",
   "or",
   "apor"
  ],
  [
   "a",
   "du",
   "adu"
  ],
  [
   "_",
   "G",
   "_G"
  ],
  [
   "Ri",
   "chard</w>",
   "Richard</w>"
  ],
  [
   "R",
   "oyal</w>",
   "Royal</w>"
  ],
  [
   "Organ",
   "ic</w>",
   "Organic</w>"
  ],
  [
   "L",
   "aw",
   "Law"
  ],
  [
   "J",
   "une</w>",
   "June</w>"
  ],
  [
   "I",
   "L</w>",
   "IL</w>"
  ],
  [
   "Furni",
   "vall</w>",
   "Furnivall</w>"
  ],
  [
   "Far",
   "mers</w>",
   "Farmers</w>"
  ],
  [
   "FA",
   "O</w>",
   "FAO</w>"
  ],
  [
   "Egy",
   "pt</w>",
   "Egypt</w>"
  ],
  [
   "D",
   "ri",
   "Dri"
  ],
  [
   "CHA",
   "P</w>",
   "CHAP</w>"
  ],
  [
   "B",
   "an",
   "Ban"
  ],
  [
   "Ap",
   "ples</w>",
   "Apples</w>"
  ],
  [
   "8",
   "s</w>",
   "8s</w>"
  ],
  [
   "18",
   "0</w>",
   "180</w>"
  ],
  [
   "12",
   "8</w>",
   "128</w>"
  ],
  [
   "ye",
   "eres</w>",
   "yeeres</w>"
  ],
  [
   "wh",
   "y</w>",
   "why</w>"
  ],
  [
   "wee",
   "ks</w>",
   "weeks</w>"
  ],
  [
   "u",
   "eth</w>",
   "ueth</w>"
  ],
  [
   "to",
   "bac",
   "tobac"
  ],
  [
   "tobac",
   "co</w>",
   "tobacco</w>"
  ],
  [
   "thri",
   "ft</w>",
   "thrift</w>"
  ],
  [
   "thor",
   "oughly</w>",
   "thoroughly</w>"
  ],
  [
   "ter",
   "ms</w>",
   "terms</w>"
  ],
  [
   "ter",
   "ing</w>",
   "tering</w>"
  ],
  [
   "t",
   "ar</w>",
   "tar</w>"
  ],
  [
   "stit",
   "ute</w>",
   "stitute</w>"
  ],
  [
   "sou",
   "thern</w>",
   "southern</w>"
  ],
  [
   "si",
   "des</w>",
   "sides</w>"
  ],
  [
   "shi",
   "ps</w>",
   "ships</w>"
  ],
  [
   "serv",
   "ants</w>",
   "servants</w>"
  ],
  [
   "sel",
   "ect</w>",
   "select</w>"
  ],
  [
   "see",
   "m</w>",
   "seem</w>"
  ],
  [
   "s",
   "chem",
   "schem"
  ],
  [
   "ro",
   "ph",
   "roph"
  ],
  [
   "ri",
   "ch",
   "rich"
  ],
  [
   "requi",
   "re",
   "require"
  ],
  [
   "re",
   "ign</w>",
   "reign</w>"
  ],
  [
   "r",
   "ying</w>",
   "rying</w>"
  ],
  [
   "pro",
   "f",
   "prof"
  ],
  [
   "pre",
   "fer",
   "prefer"
  ],
  [
   "pot",
   "ash</w>",
   "potash</w>"
  ],
  [
   "por",
   "t",
   "port"
  ],
  [
   "popul",
   "ar</w>",
   "popular</w>"
  ],
  [
   "pl",
   "aine</w>",
   "plaine</w>"
  ],
  [
   "on",
   "able</w>",
   "onable</w>"
  ],
  [
   "occ",
   "up",
   "occup"
  ],
  [
   "neighb",
   "our</w>",
   "neighbour</w>"
  ],
  [
   "n",
   "ine</w>",
   "nine</w>"
  ],
  [
   "min",
   "im",
   "minim"
  ],
  [
   "j",
   "ects</w>",
   "jects</w>"
  ],
  [
   "ic",
   "s</w>",
   "ics</w>"
  ],
  [
   "i",
   "x</w>",
   "ix</w>"
  ],
  [
   "hect",
   "ares</w>",
   "hectares</w>"
  ],
  [
   "g",
   "etting</w>",
   "getting</w>"
  ],
  [
   "fun",
   "c",
   "func"
  ],
  [
   "fri",
   "end",
   "friend"
  ],
  [
   "fem",
   "ale</w>",
   "female</w>"
  ],
  [
   "es",
   "sive</w>",
   "essive</w>"
  ],
  [
   "en",
   "ess</w>",
   "eness</w>"
  ],
  [
   "el",
   "ess</w>",
   "eless</w>"
  ],
  [
   "el",
   "es</w>",
   "eles</w>"
  ],
  [
   "el",
   "ements</w>",
   "elements</w>"
  ],
  [
   "ec",
   "tively</w>",
   "ectively</w>"
  ],
  [
   "ear",
   "ch</w>",
   "earch</w>"
  ],
  [
   "de",
   "u",
   "deu"
  ],
  [
   "d",
   "on",
   "don"
  ],
  [
   "d",
   "ay",
   "day"
  ],
  [
   "d",
   "am",
   "dam"
  ],
  [
   "countri",
   "e</w>",
   "countrie</w>"
  ],
  [
   "con",
   "uen",
   "conuen"
  ],
  [
   "comm",
   "unity</w>",
   "community</w>"
  ],
  [
   "co",
   "ar",
   "coar"
  ],
  [
   "cl",
   "assi",
   "classi"
  ],
  [
   "cere",
   "als</w>",
   "cereals</w>"
  ],
  [
   "bo",
   "dies</w>",
   "bodies</w>"
  ],
  [
   "bl",
   "ood</w>",
   "blood</w>"
  ],
  [
   "be",
   "hind</w>",
   "behind</w>"
  ],
  [
   "ast",
   "er</w>",
   "aster</w>"
  ],
  [
   "associ",
   "ated</w>",
   "associated</w>"
  ],
  [
   "as",
   "p",
   "asp"
  ],
  [
   "as",
   "ion</w>",
   "asion</w>"
  ],
  [
   "an",
   "ces</w>",
   "ances</w>"
  ],
  [
   "all",
   "owing</w>",
   "allowing</w>"
  ],
  [
   "al",
   "ga",
   "alga"
  ],
  [
   "ai",
   "es</w>",
   "aies</w>"
  ],
  [
   "ac",
   "tive</w>",
   "active</w>"
  ],
  [
   "_",
   "R</w>",
   "_R</w>"
  ],
  [
   "_",
   "F",
   "_F"
  ],
  [
   "_",
   "A</w>",
   "_A</w>"
  ],
  [
   "Wh",
   "ite</w>",
   "White</w>"
  ],
  [
   "W",
   "ar</w>",
   "War</w>"
  ],
  [
   "V",
   "ine</w>",
   "Vine</w>"
  ],
  [
   "U",
   "N",
   "UN"
  ],
  [
   "Pestic",
   "ides</w>",
   "Pesticides</w>"
  ],
  [
   "P",
   "ot",
   "Pot"
  ],
  [
   "L",
   "A",
   "LA"
  ],
  [
   "G",
   "u",
   "Gu"
  ],
  [
   "Fru",
   "it</w>",
   "Fruit</w>"
  ],
  [
   "D",
   "a",
   "Da"
  ],
  [
   "12",
   "7</w>",
   "127</w>"
  ],
  [
   "z",
   "ation</w>",
   "zation</w>"
  ],
  [
   "wom",
   "en</w>",
   "women</w>"
  ],
  [
   "where",
   "in</w>",
   "wherein</w>"
  ],
  [
   "w",
   "on",
   "won"
  ],
  [
   "w",
   "a",
   "wa"
  ],
  [
   "v",
   "es",
   "ves"
  ],
  [
   "twi",
   "ce</w>",
   "twice</w>"
  ],
  [
   "tu",
   "be</w>",
   "tube</w>"
  ],
  [
   "t",
   "old</w>",
   "told</w>"
  ],
  [
   "syn",
   "thetic</w>",
   "synthetic</w>"
  ],
  [
   "sw",
   "ine</w>",
   "swine</w>"
  ],
  [
   "stron",
   "g",
   "strong"
  ],
  [
   "st",
   "re",
   "stre"
  ],
  [
   "sh",
   "ew",
   "shew"
  ],
  [
   "se",
   "em",
   "seem"
  ],
  [
   "s",
   "n",
   "sn"
  ],
  [
   "roo",
   "m</w>",
   "room</w>"
  ],
  [
   "resul",
   "ting</w>",
   "resulting</w>"
  ],
  [
   "re",
   "turn</w>",
   "return</w>"
  ],
  [
   "re",
   "pe",
   "repe"
  ],
  [
   "re",
   "pa",
   "repa"
  ],
  [
   "re",
   "n</w>",
   "ren</w>"
  ],
  [
   "ra",
   "ke</w>",
   "rake</w>"
  ],
  [
   "pot",
   "assium</w>",
   "potassium</w>"
  ],
  [
   "pol",
   "es</w>",
   "poles</w>"
  ],
  [
   "poin",
   "ts</w>",
   "points</w>"
  ],
  [
   "pl",
   "ay</w>",
   "play</w>"
  ],
  [
   "pi",
   "eces</w>",
   "pieces</w>"
  ],
  [
   "p",
   "raise</w>",
   "praise</w>"
  ],
  [
   "p",
   "age</w>",
   "page</w>"
  ],
  [
   "on",
   "ing</w>",
   "oning</w>"
  ],
  [
   "ob",
   "serue</w>",
   "obserue</w>"
  ],
  [
   "o",
   "x</w>",
   "ox</w>"
  ],
  [
   "o",
   "il</w>",
   "oil</w>"
  ],
  [
   "nar",
   "row</w>",
   "narrow</w>"
  ],
  [
   "nal",
   "_</w>",
   "nal_</w>"
  ],
  [
   "mil",
   "li",
   "milli"
  ],
  [
   "mem",
   "bran",
   "membran"
  ],
  [
   "mead",
   "ows</w>",
   "meadows</w>"
  ],
  [
   "mar",
   "ked</w>",
   "marked</w>"
  ],
  [
   "it",
   "ing</w>",
   "iting</w>"
  ],
  [
   "is",
   "m</w>",
   "ism</w>"
  ],
  [
   "ig",
   "nor",
   "ignor"
  ],
  [
   "hop",
   "e</w>",
   "hope</w>"
  ],
  [
   "har",
   "m",
   "harm"
  ],
  [
   "ground",
   "water</w>",
   "groundwater</w>"
  ],
  [
   "gene",
   "tic</w>",
   "genetic</w>"
  ],
  [
   "g",
   "ru",
   "gru"
  ],
  [
   "g",
   "one</w>",
   "gone</w>"
  ],
  [
   "g",
   "old</w>",
   "gold</w>"
  ],
  [
   "furni",
   "sh</w>",
   "furnish</w>"
  ],
  [
   "foll",
   "ows</w>",
   "follows</w>"
  ],
  [
   "experim",
   "ents</w>",
   "experiments</w>"
  ],
  [
   "ess",
   "ential</w>",
   "essential</w>"
  ],
  [
   "environ",
   "ments</w>",
   "environments</w>"
  ],
  [
   "enti",
   "rely</w>",
   "entirely</w>"
  ],
  [
   "en",
   "deth</w>",
   "endeth</w>"
  ],
  [
   "en",
   "ab",
   "enab"
  ],
  [
   "el",
   "i",
   "eli"
  ],
  [
   "dist",
   "inc",
   "distinc"
  ],
  [
   "di",
   "vi",
   "divi"
  ],
  [
   "d",
   "ding</w>",
   "dding</w>"
  ],
  [
   "d",
   "der</w>",
   "dder</w>"
  ],
  [
   "cre",
   "ated</w>",
   "created</w>"
  ],
  [
   "conv",
   "entional</w>",
   "conventional</w>"
  ],
  [
   "con",
   "c",
   "conc"
  ],
  [
   "com",
   "pen",
   "compen"
  ],
  [
   "ci",
   "um</w>",
   "cium</w>"
  ],
  [
   "cha",
   "e",
   "chae"
  ],
  [
   "c",
   "um",
   "cum"
  ],
  [
   "c",
   "ks</w>",
   "cks</w>"
  ],
  [
   "buil",
   "dings</w>",
   "buildings</w>"
  ],
  [
   "bran",
   "ch</w>",
   "branch</w>"
  ],
  [
   "bi",
   "om",
   "biom"
  ],
  [
   "beet",
   "le</w>",
   "beetle</w>"
  ],
  [
   "be",
   "au",
   "beau"
  ],
  [
   "au",
   "th",
   "auth"
  ],
  [
   "atten",
   "tion</w>",
   "attention</w>"
  ],
  [
   "at",
   "ure</w>",
   "ature</w>"
  ],
  [
   "advant",
   "age</w>",
   "advantage</w>"
  ],
  [
   "ac",
   "ted</w>",
   "acted</w>"
  ],
  [
   "ac",
   "ids</w>",
   "acids</w>"
  ],
  [
   "a",
   "use</w>",
   "ause</w>"
  ],
  [
   "_",
   "M",
   "_M"
  ],
  [
   "The",
   "ir</w>",
   "Their</w>"
  ],
  [
   "Qu",
   "e",
   "Que"
  ],
  [
   "P",
   "re",
   "Pre"
  ],
  [
   "P",
   "al",
   "Pal"
  ],
  [
   "Nit",
   "rogen</w>",
   "Nitrogen</w>"
  ],
  [
   "Jour",
   "nal_</w>",
   "Journal_</w>"
  ],
  [
   "I",
   "ts</w>",
   "Its</w>"
  ],
  [
   "I",
   "ron</w>",
   "Iron</w>"
  ],
  [
   "I",
   "M",
   "IM"
  ],
  [
   "He",
   "alth</w>",
   "Health</w>"
  ],
  [
   "G",
   "et</w>",
   "Get</w>"
  ],
  [
   "En",
   "clos",
   "Enclos"
  ],
  [
   "Be",
   "anes</w>",
   "Beanes</w>"
  ],
  [
   "4",
   "0",
   "40"
  ],
  [
   "17",
   "3</w>",
   "173</w>"
  ],
  [
   "17",
   "1</w>",
   "171</w>"
  ],
  [
   "16",
   "6</w>",
   "166</w>"
  ],
  [
   "16",
   "3</w>",
   "163</w>"
  ],
  [
   "14",
   "0</w>",
   "140</w>"
  ],
  [
   "12",
   "5</w>",
   "125</w>"
  ],
  [
   "11",
   "1</w>",
   "111</w>"
  ],
  [
   "wor",
   "se</w>",
   "worse</w>"
  ],
  [
   "win",
   "de</w>",
   "winde</w>"
  ],
  [
   "wi",
   "t",
   "wit"
  ],
  [
   "we",
   "alth</w>",
   "wealth</w>"
  ],
  [
   "w",
   "t</w>",
   "wt</w>"
  ],
  [
   "w",
   "eigh",
   "weigh"
  ],
  [
   "ut",
   "ch</w>",
   "utch</w>"
  ],
  [
   "un",
   "less</w>",
   "unless</w>"
  ],
  [
   "transpor",
   "t</w>",
   "transport</w>"
  ],
  [
   "thre",
   "shing</w>",
   "threshing</w>"
  ],
  [
   "ten",
   "der</w>",
   "tender</w>"
  ],
  [
   "ta",
   "il</w>",
   "tail</w>"
  ],
  [
   "su",
   "n</w>",
   "sun</w>"
  ],
  [
   "stri",
   "ps</w>",
   "strips</w>"
  ],
  [
   "str",
   "at",
   "strat"
  ],
  [
   "sit",
   "u",
   "situ"
  ],
  [
   "s",
   "end</w>",
   "send</w>"
  ],
  [
   "ro",
   "ck</w>",
   "rock</w>"
  ],
  [
   "ricul",
   "tu",
   "ricultu"
  ],
  [
   "re",
   "pres",
   "repres"
  ],
  [
   "re",
   "m",
   "rem"
  ],
  [
   "prot",
   "ect</w>",
   "protect</w>"
  ],
  [
   "produc",
   "ers</w>",
   "producers</w>"
  ],
  [
   "pres",
   "sure</w>",
   "pressure</w>"
  ],
  [
   "pre",
   "ad</w>",
   "pread</w>"
  ],
  [
   "po",
   "or",
   "poor"
  ],
  [
   "ph",
   "y",
   "phy"
  ],
  [
   "ph",
   "er",
   "pher"
  ],
  [
   "pas",
   "se</w>",
   "passe</w>"
  ],
  [
   "p",
   "ure</w>",
   "pure</w>"
  ],
  [
   "n",
   "t</w>",
   "nt</w>"
  ],
  [
   "min",
   "d</w>",
   "mind</w>"
  ],
  [
   "me",
   "d",
   "med"
  ],
  [
   "me",
   "an</w>",
   "mean</w>"
  ],
  [
   "m",
   "outh</w>",
   "mouth</w>"
  ],
  [
   "m",
   "ale</w>",
   "male</w>"
  ],
  [
   "los",
   "s",
   "loss"
  ],
  [
   "li",
   "st</w>",
   "list</w>"
  ],
  [
   "l",
   "ers</w>",
   "lers</w>"
  ],
  [
   "l",
   "ac",
   "lac"
  ],
  [
   "k",
   "y</w>",
   "ky</w>"
  ],
  [
   "ing",
   "u",
   "ingu"
  ],
  [
   "individu",
   "al</w>",
   "individual</w>"
  ],
  [
   "in",
   "t",
   "int"
  ],
  [
   "impl",
   "ements</w>",
   "implements</w>"
  ],
  [
   "i",
   "i",
   "ii"
  ],
  [
   "hyd",
   "rogen</w>",
   "hydrogen</w>"
  ],
  [
   "hor",
   "iz",
   "horiz"
  ],
  [
   "hol",
   "es</w>",
   "holes</w>"
  ],
  [
   "h",
   "</w>",
   "h</w>"
  ],
  [
   "ger",
   "min",
   "germin"
  ],
  [
   "gen",
   "ome</w>",
   "genome</w>"
  ],
  [
   "gen",
   "es</w>",
   "genes</w>"
  ],
  [
   "g",
   "ro",
   "gro"
  ],
  [
   "fur",
   "rowes</w>",
   "furrowes</w>"
  ],
  [
   "fro",
   "n</w>",
   "fron</w>"
  ],
  [
   "fl",
   "at</w>",
   "flat</w>"
  ],
  [
   "f",
   "y</w>",
   "fy</w>"
  ],
  [
   "ex",
   "ic",
   "exic"
  ],
  [
   "er",
   "a</w>",
   "era</w>"
  ],
  [
   "enclos",
   "ures</w>",
   "enclosures</w>"
  ],
  [
   "depl",
   "e",
   "deple"
  ],
  [
   "dai",
   "es</w>",
   "daies</w>"
  ],
  [
   "d",
   "oo",
   "doo"
  ],
  [
   "d",
   "eepe</w>",
   "deepe</w>"
  ],
  [
   "ch",
   "ec",
   "chec"
  ],
  [
   "c",
   "ock</w>",
   "cock</w>"
  ],
  [
   "br",
   "ing",
   "bring"
  ],
  [
   "bl",
   "os",
   "blos"
  ],
  [
   "bene",
   "ficial</w>",
   "beneficial</w>"
  ],
  [
   "be",
   "coming</w>",
   "becoming</w>"
  ],
  [
   "b",
   "rown</w>",
   "brown</w>"
  ],
  [
   "b",
   "are</w>",
   "bare</w>"
  ],
  [
   "att",
   "rac",
   "attrac"
  ],
  [
   "anu",
   "ary</w>",
   "anuary</w>"
  ],
  [
   "anobac",
   "teria</w>",
   "anobacteria</w>"
  ],
  [
   "V",
   "al",
   "Val"
  ],
  [
   "Th",
   "y</w>",
   "Thy</w>"
  ],
  [
   "Sou",
   "th",
   "South"
  ],
  [
   "Shak",
   "sp",
   "Shaksp"
  ],
  [
   "Sh",
   "ro",
   "Shro"
  ],
  [
   "S",
   "et</w>",
   "Set</w>"
  ],
  [
   "Res",
   "earch</w>",
   "Research</w>"
  ],
  [
   "Ph",
   "osph",
   "Phosph"
  ],
  [
   "PL",
   "AN",
   "PLAN"
  ],
  [
   "P",
   "ul",
   "Pul"
  ],
  [
   "P",
   "ag",
   "Pag"
  ],
  [
   "Organ",
   "ization</w>",
   "Organization</w>"
  ],
  [
   "L",
   "ab",
   "Lab"
  ],
  [
   "I",
   "L",
   "IL"
  ],
  [
   "Hor",
   "se</w>",
   "Horse</w>"
  ],
  [
   "G",
   "i",
   "Gi"
  ],
  [
   "Ed",
   "ward</w>",
   "Edward</w>"
  ],
  [
   "Commer",
   "ce_</w>",
   "Commerce_</w>"
  ],
  [
   "Cha",
   "m",
   "Cham"
  ],
  [
   "Cat",
   "tle</w>",
   "Cattle</w>"
  ],
  [
   "B",
   "ook</w>",
   "Book</w>"
  ],
  [
   "23",
   "5</w>",
   "235</w>"
  ],
  [
   "14",
   "2</w>",
   "142</w>"
  ],
  [
   "yi",
   "el",
   "yiel"
  ],
  [
   "wi",
   "ue</w>",
   "wiue</w>"
  ],
  [
   "wat",
   "er",
   "water"
  ],
  [
   "trou",
   "ble</w>",
   "trouble</w>"
  ],
  [
   "t",
   "ors</w>",
   "tors</w>"
  ],
  [
   "sur",
   "vi",
   "survi"
  ],
  [
   "suff",
   "er</w>",
   "suffer</w>"
  ],
  [
   "spr",
   "ink",
   "sprink"
  ],
  [
   "so",
   "m</w>",
   "som</w>"
  ],
  [
   "sk",
   "il",
   "skil"
  ],
  [
   "six",
   "teenth</w>",
   "sixteenth</w>"
  ],
  [
   "sh",
   "ape</w>",
   "shape</w>"
  ],
  [
   "serv",
   "ant</w>",
   "servant</w>"
  ],
  [
   "sel",
   "dome</w>",
   "seldome</w>"
  ],
  [
   "sa",
   "ve</w>",
   "save</w>"
  ],
  [
   "s",
   "outh</w>",
   "south</w>"
  ],
  [
   "re",
   "me",
   "reme"
  ],
  [
   "reme",
   "dy</w>",
   "remedy</w>"
  ],
  [
   "ra",
   "ising</w>",
   "raising</w>"
  ],
  [
   "r",
   "y_</w>",
   "ry_</w>"
  ],
  [
   "r",
   "ust</w>",
   "rust</w>"
  ],
  [
   "pur",
   "se</w>",
   "purse</w>"
  ],
  [
   "pol",
   "y",
   "poly"
  ],
  [
   "po",
   "ales</w>",
   "poales</w>"
  ],
  [
   "p",
   "ti",
   "pti"
  ],
  [
   "p",
   "al",
   "pal"
  ],
  [
   "ow",
   "man</w>",
   "owman</w>"
  ],
  [
   "ne",
   "th</w>",
   "neth</w>"
  ],
  [
   "mo",
   "stly</w>",
   "mostly</w>"
  ],
  [
   "manag",
   "ed</w>",
   "managed</w>"
  ],
  [
   "main",
   "tain</w>",
   "maintain</w>"
  ],
  [
   "m",
   "in</w>",
   "min</w>"
  ],
  [
   "m",
   "ble</w>",
   "mble</w>"
  ],
  [
   "less",
   "on</w>",
   "lesson</w>"
  ],
  [
   "lay",
   "er</w>",
   "layer</w>"
  ],
  [
   "l",
   "ying</w>",
   "lying</w>"
  ],
  [
   "k",
   "shire</w>",
   "kshire</w>"
  ],
  [
   "k",
   "no",
   "kno"
  ],
  [
   "k",
   "ham</w>",
   "kham</w>"
  ],
  [
   "k",
   "g</w>",
   "kg</w>"
  ],
  [
   "k",
   "_</w>",
   "k_</w>"
  ],
  [
   "inclu",
   "des</w>",
   "includes</w>"
  ],
  [
   "in",
   "deed</w>",
   "indeed</w>"
  ],
  [
   "id",
   "enti",
   "identi"
  ],
  [
   "grow",
   "e</w>",
   "growe</w>"
  ],
  [
   "gra",
   "du",
   "gradu"
  ],
  [
   "gi",
   "ving</w>",
   "giving</w>"
  ],
  [
   "ger",
   "ms</w>",
   "germs</w>"
  ],
  [
   "fu",
   "el</w>",
   "fuel</w>"
  ],
  [
   "fo",
   "li",
   "foli"
  ],
  [
   "fi",
   "x</w>",
   "fix</w>"
  ],
  [
   "f",
   "oc",
   "foc"
  ],
  [
   "f",
   "illed</w>",
   "filled</w>"
  ],
  [
   "ex",
   "tra",
   "extra"
  ],
  [
   "et",
   "ary</w>",
   "etary</w>"
  ],
  [
   "ester",
   "shire</w>",
   "estershire</w>"
  ],
  [
   "esh",
   "ire</w>",
   "eshire</w>"
  ],
  [
   "es",
   "si",
   "essi"
  ],
  [
   "en",
   "orm",
   "enorm"
  ],
  [
   "el",
   "t</w>",
   "elt</w>"
  ],
  [
   "defin",
   "i",
   "defini"
  ],
  [
   "dec",
   "om",
   "decom"
  ],
  [
   "dec",
   "line</w>",
   "decline</w>"
  ],
  [
   "de",
   "p",
   "dep"
  ],
  [
   "d",
   "ur",
   "dur"
  ],
  [
   "comm",
   "unities</w>",
   "communities</w>"
  ],
  [
   "clos",
   "ely</w>",
   "closely</w>"
  ],
  [
   "certain",
   "ly</w>",
   "certainly</w>"
  ],
  [
   "ber",
   "ry</w>",
   "berry</w>"
  ],
  [
   "b",
   "y",
   "by"
  ],
  [
   "ay",
   "ed</w>",
   "ayed</w>"
  ],
  [
   "aut",
   "om",
   "autom"
  ],
  [
   "au",
   "ght</w>",
   "aught</w>"
  ],
  [
   "as",
   "se",
   "asse"
  ],
  [
   "ag",
   "ue</w>",
   "ague</w>"
  ],
  [
   "ad",
   "ly</w>",
   "adly</w>"
  ],
  [
   "ac",
   "qu",
   "acqu"
  ],
  [
   "W",
   "ee",
   "Wee"
  ],
  [
   "T",
   "ri",
   "Tri"
  ],
  [
   "Sum",
   "mer</w>",
   "Summer</w>"
  ],
  [
   "S",
   "pr",
   "Spr"
  ],
  [
   "N",
   "ational</w>",
   "National</w>"
  ],
  [
   "M",
   "exic",
   "Mexic"
  ],
  [
   "L",
   "a",
   "La"
  ],
  [
   "K",
   "ent</w>",
   "Kent</w>"
  ],
  [
   "IS",
   "E</w>",
   "ISE</w>"
  ],
  [
   "I",
   "X</w>",
   "IX</w>"
  ],
  [
   "Her",
   "b",
   "Herb"
  ],
  [
   "Ge",
   "or",
   "Geor"
  ],
  [
   "Fer",
   "tili",
   "Fertili"
  ],
  [
   "E",
   "con",
   "Econ"
  ],
  [
   "D",
   "ay</w>",
   "Day</w>"
  ],
  [
   "Cour",
   "t</w>",
   "Court</w>"
  ],
  [
   "C",
   "A",
   "CA"
  ],
  [
   "Bo",
   "th</w>",
   "Both</w>"
  ],
  [
   "Be",
   "fore</w>",
   "Before</w>"
  ],
  [
   "B",
   "a",
   "Ba"
  ],
  [
   "A",
   "D",
   "AD"
  ],
  [
   "26",
   "2</w>",
   "262</w>"
  ],
  [
   "20",
   "20</w>",
   "2020</w>"
  ],
  [
   "19",
   "th</w>",
   "19th</w>"
  ],
  [
   "16",
   "7</w>",
   "167</w>"
  ],
  [
   "15",
   "5</w>",
   "155</w>"
  ],
  [
   "where",
   "of</w>",
   "whereof</w>"
  ],
  [
   "val",
   "ent</w>",
   "valent</w>"
  ],
  [
   "v",
   "ul",
   "vul"
  ],
  [
   "v",
   "is",
   "vis"
  ],
  [
   "tri",
   "m",
   "trim"
  ],
  [
   "ti",
   "les</w>",
   "tiles</w>"
  ],
  [
   "th",
   "ick</w>",
   "thick</w>"
  ],
  [
   "te",
   "en</w>",
   "teen</w>"
  ],
  [
   "sti",
   "tu",
   "stitu"
  ],
  [
   "sl",
   "ow</w>",
   "slow</w>"
  ],
  [
   "sen",
   "se</w>",
   "sense</w>"
  ],
  [
   "ro",
   "le</w>",
   "role</w>"
  ],
  [
   "ri",
   "age</w>",
   "riage</w>"
  ],
  [
   "pub",
   "lished</w>",
   "published</w>"
  ],
  [
   "pro",
   "pag",
   "propag"
  ],
  [
[...]
